#version: 0.2
+ +
++ +
$ +++
+++ $+++
o u
t h
i n
r e
a n
_ _
th e
y ou
a t
o n
e r
t o
l l
m e
h e
in g
i s
i t
. .
o r
e ou
__ eou
__eou __
v e
s t
s e
o w
a r
l e
b e
e n
h at
an d
a s
a y
o f
m 2
k e
h a
m 1
o t
e s
m 5
L 3
.. .
m 3
e d
L 4
L 5
m 4
a l
L 1
L 2
i d
g h
th at
w e
l d
l i
Y ou
o o
d o
a ll
e t
u t
f or
i c
o me
u 3
a c
ou t
u 1
u 7
A N
u 4
v er
w i
gh t
n ow
L 6
u 6
u 8
u 2
E R
u 5
r i
ha ve
A R
a re
a d
n d
r o
c h
T he
on e
you r
a b
n e
g o
ou ld
W hat
m y
k now
- -
W e
i r
u st
th ing
t i
th is
l y
c an
he re
w as
d on
I t
an t
6 0
wi th
9 5
4 0
s h
6 1
i m
n ot
g et
2 0
li ke
6 7
8 8
H e
u p
w hat
2 1
9 3
a m
2 7
9 1
t er
9 7
a ke
u s
s ome
6 8
3 0
2 5
4 5
i on
f e
4 1
in k
9 8
O N
9 0
L E
3 5
6 5
r y
4 7
3 7
I N
h o
2 8
n t
c o
s o
c e
m o
4 8
the r
3 1
ab out
an y
t e
i f
l o
p e
w ant
u n
E L
th ink
u r
N o
oo d
3 8
d e
ou r
j ust
n o
a g
0 0
O R
g ot
E N
w or
c k
i ll
6 2
I C
6 9
w ay
4 4
T hat
ver y
5 5
oo k
the re
d id
a in
p le
h is
1 1
i ght
b ut
9 9
in d
ri ght
u re
h im
2 2
5 0
6 4
all y
I E
7 1
6 3
T H
se e
7 8
p o
the y
b o
7 5
9 4
ti me
ac k
8 0
2 3
A nd
t r
7 0
2 4
h er
A L
p l
I L
i ve
m an
s a
3 3
e a
Y es
h y
u se
ar t
5 1
go ing
en t
a p
e l
6 6
ro m
wi ll
B ut
e x
d ay
H ow
a st
w ould
ar d
We ll
S T
0 1
O h
C H
3 4
8 1
n a
he n
9 2
c a
7 7
an k
on g
u l
in e
i g
R A
at e
co m
c on
g e
R E
8 5
s s
s ay
en d
ic e
i e
at ion
ow n
g ood
to o
7 4
R O
ou nd
er s
9 6
3 2
0 5
s he
g u
q u
k ing
f rom
c ome
i l
D o
p ro
8 7
t ake
p p
l ook
M A
c ould
u ck
C K
te ll
es s
be en
ea h
the m
u ch
e ve
w ho
r a
4 2
y e
3 6
of f
7 2
c t
b le
b ack
0 8
is t
ne ed
re d
The y
d y
J A
T h
we re
I S
T T
p re
L A
u m
3 9
h ow
e p
m ake
1 8
ha d
mo re
a se
a ve
l f
5 8
w o
M AR
it t
S o
4 6
Y eah
a f
o ther
f o
me an
4 3
E S
t al
u nd
7 3
A M
1 5
w hen
re ally
2 9
W hy
4 9
ic k
me nt
ou s
J O
ou gh
1 0
did n
L O
sh ould
t y
m uch
s p
7 6
o ver
2 6
c all
p er
S he
M AN
D Y
e very
b y
some thing
IL L
ac e
ar s
le t
t a
T his
ac t
IC K
wor k
M r
I f
or t
0 3
o ple
ne w
d own
D on
ne ver
b er
G E
8 9
id e
it e
7 9
ha pp
c he
ou ght
Th ank
n ing
E D
itt le
h as
he l
R Y
1 3
s to
re e
w here
re at
e ver
ke d
do es
AN N
m or
1 2
be t
l ittle
pe ople
The re
j o
k ay
p r
0 2
it y
A T
K E
I D
the n
as s
C O
hel p
ca use
g ive
I s
se lf
w on
5 2
lo ve
bo dy
h i
8 2
re ad
ay be
S E
1 9
g r
b u
ti on
or ry
s ure
v ing
on ly
D E
b r
f a
fo re
one y
c i
1 7
0 4
ab le
B O
5 4
U R
G o
M y
l ong
T ER
t wo
5 3
1 4
EL L
is h
s u
sa id
U L
ag e
1 6
w r
D A
8 3
e m
p ut
C h
c ou
g on
l a
L et
W here
ir st
gu y
n ight
gon na
R AN
0 7
m in
d i
f uck
we ll
5 7
fe el
AR D
any thing
k ill
ri end
re st
happ en
s pe
oo m
R I
f ind
t ry
an g
A re
B E
w hy
a it
JA CK
C an
st and
und er
a k
n y
ple ase
J ust
m 60
B e
8 4
8 6
0 6
ac h
l ot
O L
way s
F F
N ot
is s
to r
th an
N ow
se d
c are
c our
an ce
p art
d er
tal k
t ing
ag ain
< /
b l
c ar
in to
U S
s ir
W ho
e st
do ing
G ood
r u
5 6
na me
af ter
0 9
th ought
S H
f riend
m on
ad e
M I
k ind
o ld
be fore
o m
r ow
S ON
s orry
r oom
bet ter
m ust
m a
f irst
I n
m oney
u e
s er
eve n
l ast
in t
thing s
A ll
oo l
C E
b us
D id
ar ound
ic h
e k
o p
o se
st ill
m ar
I M
li eve
al ways
i es
ur n
li fe
an s
u h
t en
g reat
s i
cour se
d is
f f
pl ace
C A
h ome
U N
the se
H A
le s
c lo
we ek
AN D
g ir
c l
ke ep
R e
p s
M R
ye ars
L ook
The n
is e
at er
at ch
O M
N E
s up
be lieve
P E
L3 5
w ent
the ir
ar y
to ld
pl ay
st art
m ber
IN E
u7 5
t on
M aybe
he ad
I R
u1 5
ou se
u3 0
u ll
ri ed
jo b
W hen
n g
u1 1
O kay
mo st
r un
O K
s it
read y
H AR
u2 5
min ut
a way
com p
b ig
h and
f ul
J o
k id
u5 5
m 61
He y
w ait
b ad
s ide
m s
as k
cou nt
L6 1
p ort
m ind
5 9
li ve
n er
b ab
u4 5
be cause
Go d
P A
re al
C AR
y es
u3 1
TH ER
u1 0
st u
u6 1
gir l
L4 0
N Y
me mber
L1 1
u2 1
i z
L5 0
L3 0
f t
pro ble
S ome
B AR
JO H
f i
IC E
does n
L 8
u7 1
L Y
I T
th ose
L4 8
i ld
m er
I A
M O
P H
me n
c re
sh ow
F RAN
D O
sh it
S t
You r
t ain
LE N
u7 8
an ge
ig n
U D
is n
el se
ist en
u3 7
me et
h ouse
u5 0
m at
u7 0
m ade
he ar
bo y
no thing
JOH N
p ay
under stand
L3 1
ve n
S ure
c le
f in
L5 5
r ough
F or
c or
B ER
u5 1
m ight
p t
st ay
I AN
p h
m any
b it
IN G
s on
V E
re n
u ally
n ice
J E
h ich
u3 5
th ree
B Y
d r
t urn
a me
le ave
u6 5
H E
re s
x t
every thing
L4 5
He re
L6 5
L2 5
u4 0
He ll
L4 1
C ome
H ave
L3 7
wr ong
I G
d am
e e
mor ning
o kay
d if
gu ess
sh o
ke t
L5 8
u8 1
se t
u4 1
u8 7
b re
LE Y
to day
N ICK
L2 3
in ess
th rough
d one
T o
i p
en ough
TH E
he ll
L1 8
ne xt
le ase
L1 2
K A
JO E
Thank s
i ous
L1 4
a ir
en ce
h ard
W ILL
a th
L U
P ER
b ro
your self
L2 0
u8 0
pl an
ers on
get ting
proble m
a u
time s
L5 1
u6 0
mor row
would n
an other
h our
L4 4
e ll
o b
re member
happen ed
AR L
c er
f ine
re nt
E x
tal king
look ing
be st
id ea
L2 4
L i
th ank
want ed
L6 0
c tion
de ad
L2 1
S h
V ER
EN T
com ing
le ss
u6 8
con d
L2 8
le ft
ca me
W A
use d
S A
c tor
in te
li ght
P lease
O f
w al
fe w
A l
l ate
he ard
wor ld
bus iness
s ch
s ur
o l
hi le
B A
L3 4
L3 8
day s
f am
m aybe
i ly
u4 8
po int
L3 3
sup po
R U
a v
qu est
d re
pre t
L1 0
W ould
OR GE
inte rest
sa me
u3 8
u2 0
s m
p ic
u8 5
u d
be ing
at ed
to morrow
H i
Hell o
p erson
T E
ar k
l ad
e ar
L6 3
e at
bu y
f ive
mon th
u1 7
have n
fa ther
V IN
c r
v ie
m ay
u1 8
f un
J IM
in ce
F r
was n
mo ther
A D
w hile
u4 4
some one
s ha
sa w
che ck
mat ter
BO B
L2 7
m iss
L1 7
as h
A ny
h n
ST E
ion s
S AM
GE ORGE
d ri
dif fe
d u
d es
MR S
ound s
N e
L4 3
ye ar
se s
st r
L5 7
sch ool
it s
wor d
in ter
ra id
li c
ton ight
L ER
G RA
L5 2
C LA
i th
u1 3
se en
for m
u2 7
Jo hn
W ill
L4 7
L6 4
u8 4
mo ve
u6 7
got ta
try ing
L5 6
A n
st er
T A
T ON
as on
b ook
me d
L4 2
B EN
ho pe
sto p
L2 9
u1 2
do ll
ul t
l ow
G et
v is
FRAN K
u7 3
dr ink
? !
le ep
E very
u2 3
u2 8
le d
u5 7
L1 5
W AL
who le
af raid
L IN
a w
u5 8
c ut
pret ty
. "
u3 4
fuck ing
y et
al ready
dam n
L AR
be d
h ur
w atch
U G
L5 3
de al
se nt
O n
k new
c ent
u2 4
A LE
OR D
ge ther
se n
u1 4
.. ..
comp any
R ight
al so
f ound
a go
m m
won der
to w
L5 4
to gether
L3 6
u4 3
ti l
u5 3
IC HA
guy s
T OR
my self
br ing
ic al
wi fe
C Y
call ed
n um
op en
! !
A s
h ot
w ar
u7 7
JE FF
E Y
und red
b or
he d
w hich
ch ange
e as
wor ry
u6 9
in s
s uch
S S
an c
u7 4
MAR T
m2 89
N OR
a il
B ILL
J ER
c ha
s ing
u3 2
HAR RY
T CH
d in
ch ild
h undred
ou ble
L6 2
wor king
E TT
M Y
u7 2
i ble
so on
p en
con t
c ra
minut es
O O
d ie
MAR Y
id ent
bab ly
f ar
g g
L 9
R o
PE TER
PA UL
a ut
e ct
u b
V O
ph one
... ?
l and
T ell
f our
at t
z y
LE S
is ter
ap p
h uh
L3 2
friend s
V I
pe ct
D e
Be cause
O ne
st e
y a
MA X
M ay
u4 9
ch ar
ci al
ca se
ll ow
say s
could n
D R
sh ip
s we
si x
d ing
c use
i an
f r
ation s
be aut
Q U
i a
minut e
f ull
hi gh
l isten
m2 95
C ould
Ch r
L2 2
f ic
p ar
ve s
C ON
po ss
wo man
u5 2
N A
u8 8
TT Y
E M
qu ite
bre ak
u3 3
OL D
M ICHA
MICHA EL
M a
R ICK
L1 9
l ing
stu ff
L4 6
im port
with out
kill ed
v or
e ach
u6 4
le ar
u4 7
m is
Li ke
A H
ho ld
li e
st re
M o
t ri
L3 9
s leep
30 0
L I
l ine
B U
happ y
se cond
too k
ch o
if ul
s c
RE Y
Re ally
diffe rent
M ar
fe ct
act ly
DA V
on ce
ha lf
ser v
ke y
i o
think ing
K IR
ve d
off ice
de c
doll ars
tow n
ALE X
M ON
m2 99
ing s
b ar
fam ily
M e
p rom
say ing
VO ICE
DAV ID
B r
ANN IE
s y
i ther
s ign
U h
g en
s ince
un til
num ber
D U
g er
D ad
L OR
U n
c us
do or
u 90
went y
b all
wal k
S ee
N I
c ess
to p
are n
H AM
f ace
u4 6
O r
S Y
P O
tr ue
f ood
pro bably
import ant
p ri
g re
k en
at ing
L5 9
98 0
look s
y eah
al s
G G
m1 05
A t
l or
re ason
f ast
41 0
u8 40
LE ON
S orry
g one
l ater
la w
an na
g ame
c ur
l uck
D ER
E ng
ha ving
po sit
want s
D IE
JER RY
un ch
ous and
RA Y
G A
li ce
S U
a ther
p are
m2 38
47 5
u7 6
u6 3
f er
c ked
u5 6
u2 6
20 0
we l
beaut iful
B UD
cra zy
RO B
bab y
B o
c ard
s k
EL A
S AL
u5 4
u1 6
No thing
ir d
40 5
f ree
hour s
er y
H O
m5 13
th ousand
suppo sed
m 82
se nd
M iss
G O
Ne w
i re
D ON
J ack
J UL
so l
ce pt
m 90
f ig
g un
al one
L6 6
u6 2
J es
T OM
make s
F ER
c y
u7 9
LO U
pre ss
bro ther
T ake
in v
w ish
Chr ist
hur t
K I
eas y
Z A
t ure
L2 6
bo th
S ID
mar ried
u al
IC A
b and
t ic
ver s
or der
lo st
z e
L1 6
m4 28
cl ass
tr ouble
f l
n ed
R IS
h u
V e
55 5
um p
A mer
97 1
67 4
u2 2
Amer ic
L 7
60 2
61 2
lo g
u8 2
20 8
on t
AN DY
G U
l ish
m4 35
D r
w ater
any one
AN E
CO L
co ll
come s
ES S
a h
m3 80
35 7
you ng
68 1
M C
know s
Mr s
61 1
J EN
fig ure
ex pect
m1 00
iz e
CH ARL
quest ion
CHARL IE
m5 22
W ait
f if
th ough
V A
F A
m it
n ess
jo y
T O
T ED
ir ty
93 8
L isten
spe ak
B RO
p a
w ard
le ast
KIR K
BOB BY
h it
m2 43
m3 42
ap er
D AN
it ion
47 7
21 8
kid s
sh ot
part y
count ry
m ome
m5 28
t able
ta king
poss ible
C om
get s
95 8
45 5
m5 37
a z
an e
-- --
00 0
me t
Do es
mome nt
Ex cuse
p ie
98 3
Jes us
BER T
t wenty
sto ry
tr u
ul ar
JA KE
u3 6
pp ed
G ER
e le
at or
go d
m1 49
m 77
A b
he art
ch ance
TH Y
MO THER
G r
MI KE
din ner
C o
m1 6
ex per
A r
on es
C LE
p ick
48 4
ex actly
vie w
f ight
95 5
K AR
m5 32
u3 9
u4 2
pl ain
05 7
at es
H ar
be g
m4 67
we ar
cou ple
ma king
as ked
TH AN
tr ain
ser ious
on s
hat e
m 72
u8 9
25 8
clo se
ment s
T RA
68 3
m3 5
35 1
h ite
64 9
G AN
28 3
m2 46
J e
g ave
no on
any way
AND ER
ow er
ED DIE
m ine
K AT
g s
91 6
Y O
re g
fe e
w anna
m p
m1 50
do ctor
WAL TER
S US
f act
m i
nt s
WA Y
D OR
21 5
dre ss
LOU IS
m1 39
id es
thank s
85 9
Eng lish
27 3
act ually
s ounds
ti ve
78 4
44 9
u 9
L e
d ro
h or
M ER
m3 68
Y D
or k
60 6
68 7
R EN
c u
LE E
ou th
c ri
te st
21 0
u1 9
tain ly
90 6
con s
W ith
m5 88
67 7
S AR
ap art
JACK IE
ter s
w ind
m2 92
ter ri
m1 27
20 1
m3 8
v i
L o
K ER
s ick
w er
m1 52
88 3
pic ture
G EN
m b
m ill
go es
some body
71 2
63 3
t s
m us
L4 97
C LAR
for get
91 8
78 5
LO W
67 5
95 1
sm all
H o
s im
con f
B UR
ELL Y
bl ood
ut e
g lad
fa vor
AL L
S e
f re
po lice
fo llow
C RA
80 3
en joy
m4 23
L1 3
su b
see ms
N IE
ANN A
W hich
ANN E
m3 73
m1 75
m3 33
e ight
21 6
28 1
spe cial
RI ST
ri es
71 3
mean s
t ried
al ong
m2 93
ha ir
40 7
L3 60
93 4
m2 08
p ain
T om
m2 96
L5 00
21 4
ge st
after noon
m1 03
any more
m2 44
al most
41 6
e yes
91 2
ST AN
27 8
30 5
te en
L2 37
48 1
wait ing
l in
88 5
m2 34
on d
in a
ac count
G reat
m2 30
34 9
m4 75
tr ust
d en
e v
it ing
68 2
dre am
IC H
88 0
31 7
ST ER
start ed
W ARD
sen se
ot e
21 3
month s
C ar
b ag
MART IN
M om
P e
40 9
55 1
r ing
G I
u7 80
RE D
97 9
41 3
B RI
95 0
95 9
62 3
64 6
CAR TER
cle an
m5 95
m4 2
co p
ou nt
40 4
91 0
us band
A h
m 78
61 5
u2 9
20 4
exper i
Z Z
m5 69
L6 37
44 3
tell ing
e ither
m5 5
M EL
is hed
69 6
64 2
I RE
N O
h usband
l oo
m 88
it ed
it al
en ti
we en
m1 78
d et
re l
H ER
c es
c ity
m2 29
M ary
g ent
mo vie
S CH
p ass
m2 02
m2 17
m4 87
wor th
B RE
ti ll
A f
M E
O k
am p
Fr ank
t ou
in form
tru th
to ry
NE Y
c ed
93 7
me ss
m2 69
m1 19
11 4
fuck in
e f
v o
m3 12
your s
95 2
27 7
97 0
cor d
T wo
fi re
p ull
th in
ro ss
21 1
98 6
F ine
G AL
m5 33
93 1
90 9
51 9
P AR
Y N
at ur
b ye
er al
m1 40
b ank
45 1
47 0
L4 9
com ple
27 2
68 6
ce ll
new s
ELL IE
L6 38
MA C
60 3
35 5
65 7
BE TTY
child ren
H is
F uck
RO SE
every one
sho ot
B ill
C ap
Y A
p lo
60 5
off er
95 6
see m
pro du
meet ing
cle ar
of fee
93 6
pr ice
u8 6
c li
F ORD
st ra
s ort
ome n
48 5
E V
j ect
31 2
P er
L6 00
f all
p ower
s care
B l
U CK
r id
48 0
31 0
m3 48
31 4
suppo se
ha ps
27 1
91 4
HE LEN
m1 18
se ll
91 9
interest ed
72 9
week s
V EN
in side
it ies
88 4
C OR
J im
90 0
m3 29
50 2
s al
L2 67
dri ve
M AL
t le
30 8
25 5
65 2
per fect
again st
m ach
li ving
47 6
co ld
i et
61 4
24 3
NICK Y
tic ket
u8 3
ad v
93 0
lo se
h ind
m1 63
L3 37
G ive
i er
bu ild
Ch ar
fr ont
com put
91 5
bet ween
G e
90 2
31 9
ang er
S ir
m5 98
a head
wr ite
M i
c red
u ght
m5 16
71 7
i ent
pre sent
stre et
V ery
27 0
35 9
66 6
Af ter
ch ang
ie ld
ne ar
a king
l t
m1 06
28 0
55 2
93 2
m2 66
25 1
un g
m 70
L5 01
48 6
62 2
L3 11
feel ing
AD AM
M an
P R
lo ck
pr is
re sp
co st
62 4
P o
m1 04
95 7
61 8
O ur
T ho
sp ort
JEFF REY
s ound
25 9
ti red
di ed
BILL Y
P r
S O
se x
m2 78
K Y
m5 70
41 5
50 7
pp ing
lear n
H AN
m1 41
ren ce
B B
m5 89
m3 36
93 5
DOR O
JA M
p at
m5 64
45 7
B y
B ob
ro ad
m 62
45 6
eve ning
fa ir
w in
it ch
25 2
D ANN
se cre
55 7
24 9
DANN Y
L1 00
ine se
m as
un i
62 9
m2 85
60 0
35 0
any body
v al
ans wer
c al
c offee
ER I
21 7
se l
be hind
40 8
ag ree
m3 55
E d
f ill
le y
m5 75
m4 69
L1 51
m5 65
61 7
E VE
P IN
m ur
p or
le ad
m3 76
98 5
sp end
ar m
m1 12
us ually
a ving
s mo
m5 19
m5 07
fun ny
at ive
m2 91
m5 86
mus ic
as ure
m2 25
de ath
coll e
u de
44 2
re ct
m5 93
m3 47
il ity
run ning
HAR OLD
85 6
clo ck
m4 27
28 5
Ch inese
c ap
m2 51
D EN
m id
or d
pare nts
M UR
S te
T r
n or
20 5
31 1
50 5
m4 64
m4 63
com m
m3 70
su g
RAN D
m2 7
25 0
65 0
22 6
every body
su it
L LO
bl ack
he s
88 9
inform ation
m ain
m 94
id ay
95 3
call ing
mill ion
l ar
N AN
th irty
se ven
up id
65 4
f lo
48 7
m2 76
m2 04
31 5
77 7
m ad
the s
81 9
P AT
g i
m3 6
m2 31
m3 14
out side
ag es
Ge or
M ILL
28 9
I O
k s
l er
m5 18
60 4
PH Y
f u
s ister
re port
30 7
CH RIST
m1 26
ic s
37 9
hand s
re ce
all ow
at s
u6 01
38 1
m2 75
m1 02
id er
KAR EN
h oney
m3 34
u5 01
che d
bu ll
au ght
D ICK
m2 0
m2 9
d ad
L4 70
m5 94
m5 03
65 8
re cord
m2 98
n et
m4 31
m1 09
Cap tain
f il
m2 16
do g
90 1
TT E
hot el
c ident
m4 44
ra ther
S CO
m3 69
22 2
should n
Y ork
d ate
m 0
m1 9
p ast
w he
tr ans
m3 81
take s
m1 62
' .
w omen
m3 27
u6 6
u5 74
41 2
l ay
sa fe
RI P
JUL IE
stra ight
N ever
ic es
63 2
J u
m4 91
ap pe
08 9
B ar
G US
m5 39
22 4
m60 1
apart ment
C RO
m ag
m4 62
35 3
m60 5
s cre
m2 39
m1 61
m3 32
88 1
37 8
EL I
l s
97 5
30 2
m2 87
m1 20
L4 80
60 1
need s
ta ken
i b
m1 24
91 7
45 2
62 6
itt ing
bus y
G ot
h ang
c atch
p aper
le n
m4 03
serv ice
tou ch
M B
ve nt
m3 71
NOR MAN
m4 51
ir th
45 0
58 4
P et
m 89
s ive
m4 50
93 3
30 3
beg in
FRAN C
for t
wonder ful
U RA
P IC
u g
st upid
41 1
11 2
him self
G RE
L1 40
de st
pre ci
MI LES
W as
in st
m1 01
posit ion
d aught
p as
65 6
m4 02
SUS AN
B en
G u
S ay
38 9
75 1
DORO THY
m2 36
67 8
90 4
THE O
F irst
K O
98 7
i al
m2 40
m4 99
al ive
L2 50
91 1
48 9
de ar
RA CH
Ab out
B ON
m2 20
m4 79
ye ster
pie ce
yester day
b ill
m2 67
m1 31
ne y
37 2
IN A
wor ked
pr of
A ct
88 8
30 6
bo ard
75 8
happen s
25 6
99 4
M ic
m4 05
br ought
interest ing
of ten
28 4
ST AR
ON G
65 1
st em
m1 0
m3 30
quest ions
miss ion
comput er
MUR PHY
m3 24
97 6
30 1
gr am
M OR
m2 83
m1 99
L4 51
one st
20 9
31 3
87 9
clo thes
comple te
Geor ge
f ac
at ure
m1 94
sh ut
91 3
L AND
RO Y
W O
m3 09
m4 65
68 0
CLA IRE
B et
g l
L4 00
some times
25 3
u sh
45 4
47 9
BE TH
B I
L IS
P EN
P RE
d ra
61 9
37 5
ation al
sol ute
fif ty
T V
On ly
t w
m1 93
L3 70
67 6
25 7
94 2
hu man
secre t
U T
m4 5
67 2
tr ave
ate ly
tri p
m1 69
cont ro
m 92
o h
61 0
97 2
IN O
H er
j e
as king
m5 12
m3 44
ant s
65 5
11 5
b ur
i gh
m5 52
m3 41
qu ick
girl s
m3 22
m4 95
al th
id ed
28 7
38 4
ex t
H EN
j or
r is
45 9
OL LY
r ad
60 8
sh ort
ROB IN
I TH
m5 50
u5 9
GRA HAM
68 4
no body
34 3
i li
m1 68
61 6
41 9
15 7
m5 58
L1 50
35 2
fi x
N IC
c ool
m3 74
35 8
38 7
sto re
l ist
re t
m2 35
m1 67
m5 7
The se
95 4
71 0
94 3
ast e
m61 0
person al
m1 51
L1 01
35 6
HA W
i le
t ed
m1 81
97 4
80 8
32 9
gr and
h h
69 2
LLO YD
U M
l an
w hite
m2 50
27 5
75 2
boy s
daught er
P P
m5 36
AR LO
p ur
m2 24
m2 73
58 2
scare d
I AM
i x
le g
m2 47
28 6
67 1
47 2
co ver
spe ct
C on
m4 18
ad d
DO C
S m
W ow
ar ch
m4 16
H uh
b irth
m3 08
20 7
ELA INE
resp on
P ro
m5 9
47 1
ex pen
N ice
m5 25
20 6
99 9
tr act
A U
a ur
s ou
m5 60
20 2
41 7
tr a
Jo e
week end
F RED
M on
ly ing
98 4
WILL IAM
GG IE
m 6
en ter
sha ll
word s
MART Y
le aving
40 0
W al
W EN
u1 70
97 3
98 2
PIC ARD
C he
48 3
Some thing
char ge
Q u
re turn
m2 81
m2 14
m1 98
69 9
play ing
wel come
f le
m2 01
m1 7
m3 02
m4 82
what ever
m5 11
78 6
stu dy
JOHN NY
RACH EL
m2 5
m4 4
80 1
m61 5
Al right
Act ually
sp ital
live s
full y
sy stem
D IAN
S am
m 68
67 0
god damn
m3 35
L4 01
m4 08
L2 81
m2 49
m2 57
m5 45
40 1
m 71
or g
ve st
97 8
some where
98 1
63 9
solute ly
O LE
m3 97
al right
No body
BO Y
I ON
P a
f it
for got
47 8
48 2
l unch
w ed
m5 91
L6 01
ag er
K e
b ot
p end
m3 63
know n
EL LE
38 6
N or
c tive
p ack
60 7
99 2
sa ve
ex c
ear ly
m outh
ic ally
41 4
22 3
luck y
SAR AH
ur ing
s um
m3 37
51 0
ex plain
con cer
th row
m5 4
bo x
sug gest
V Y
ou d
m1 29
45 8
23 9
92 9
OO D
41 8
on y
m5 01
m4 8
m3 06
23 4
ast er
lad y
prom ise
T Y
s w
v ac
m1 8
m4 55
20 3
38 0
bo ss
C RE
E THAN
P ar
ap preci
Americ an
FRANC ES
c ash
be at
90 7
qu al
B RU
m 93
m4 94
ap point
M ICK
N ES
b ought
m2 07
27 4
OM ER
m 79
w all
m1 90
31 8
de li
81 0
work s
LU KE
U DE
experi ence
s l
m5 27
L5 55
L2 70
car ry
flo or
MICK EY
C a
V IC
en g
te am
TT LE
kid ding
ste ad
wind ow
V AN
d le
m4 04
67 3
51 5
NI FER
JEN NIFER
D an
n ie
m1 28
m4 71
37 7
st ick
TH O
proble ms
Every thing
sel ves
S top
m1 44
35 4
65 9
fo ot
Z AR
st ar
m3 04
67 9
BAR RY
D RA
O FF
o per
99 6
MAR GO
pa id
P res
m4 11
71 4
ex am
BRU CE
L3 55
L5 88
m4 24
ac cident
che s
swe et
L u
L IL
g y
st ate
ha ll
27 9
11 7
u45 25
DAN TE
D av
R ID
d ent
f ield
m 83
s qu
m2 03
m2 79
TH A
SAL LY
m3 89
GAL VIN
d anger
27 6
68 5
te le
75 4
r ain
see ing
t reat
m1 11
30 4
38 2
Any thing
m 84
m4 53
ST ON
32 6
uck s
A G
m2 00
m3 20
m3 90
mo m
v ir
m2 88
71 5
were n
g n
r ide
m4 96
JIM MY
m2 1
L2 55
65 3
69 4
inter view
Pe ople
m2 65
de part
C l
v in
m5 61
loo ked
W H
s un
m5 30
m5 76
11 1
air s
47 3
e en
f ool
u6 77
pr act
MI TCH
90 5
book s
m1 17
L5 50
pre fer
Is n
be come
en se
m1 33
m5 08
61 3
other s
CO LE
gr ound
hand le
FA THER
N ER
m2 52
m1 97
m3 26
m3 03
60 9
ho spital
gr ow
CLA Y
J ON
f ish
m3 2
AN IE
23 6
pre s
GRA CE
i me
SID NEY
S PO
m3 58
21 2
08 6
fin ish
J OR
m1 32
ac tion
am a
co lor
RY N
DA D
R ON
m5 68
fe ll
37 1
78 2
plan e
anc es
m2 56
m5 73
ac cept
ard s
78 7
m60 6
terri ble
m 87
u es
m2 28
m3 53
jo in
KAT E
cons ider
m1 71
WA DE
cho ice
contro l
VIC TOR
m2 05
m4 45
33 3
CH E
ps y
ve l
m1 07
80 4
92 6
Z E
m3 16
po p
K EN
W E
m5 0
CAR OL
F E
e ye
m3 7
47 4
MON D
J UN
m4 80
90 3
COL M
MAL COLM
B LA
b ase
to m
m1 54
31 6
CH RIS
PH IL
> .
b ath
c up
m 66
m 74
s me
m2 3
L3 40
98 9
AL ICE
Do ctor
bit ch
L 85
d ark
m1 74
m4 52
for d
ch ick
OR E
33 4
Z O
um b
. '
C er
W IL
me nd
m5 99
us ing
ll y
m3 4
24 2
g as
im ag
Did n
str ong
Pres ident
f light
v ate
st ep
45 3
50 6
let ter
A m
X ON
m3 18
AR ON
ub lic
Tho se
A CE
W EL
c ot
c ook
m1 23
m5 85
m4 6
m4 33
men tion
respon si
V IS
l it
le nt
88 7
ple asure
AL VY
br ain
u11 69
E ven
a i
h onest
m3 52
EN CE
ci ally
97 7
gi ving
D am
d ist
m5 81
21 9
y er
94 6
33 2
c am
u an
y le
m1 65
m5 41
m4 46
m4 49
F rom
W AN
m2 2
m5 46
m5 02
18 3
M ake
c as
m5 14
63 6
Some times
cer tainly
g ar
m1 13
RE W
pro gram
V AL
he alth
m2 4
id ence
38 5
MA SON
ma il
MO SS
Sh ut
Har ry
C AL
m5 05
bl ow
T RE
f ut
s n
---- ----
p ed
ar r
en e
m3 99
ac her
la u
Pa ul
F O
m3 91
L1 25
bo ther
BUR N
Dav id
m2 15
m1 95
93 9
64 3
off ic
mar ket
dec ided
sim ple
r an
m4 36
m4 07
ro ll
m60 3
appreci ate
m1 60
m1 45
88 2
44 4
71 9
05 4
05 9
G RAN
m1 59
m5 40
u1 475
MAR IE
WO MAN
E n
J ANE
68 9
63 4
sup er
dif fic
m1 72
m3 67
m4 98
im me
ED WARD
DO UG
m2 21
m2 94
m3 00
L5 40
m4 29
oo se
fin ished
m5 77
dis cus
YO U
Ke ep
B AT
en s
L4 75
m4 37
u3 681
37 0
37 3
think s
11 0
CH UCK
des er
z z
m4 58
can not
28 2
ie f
Ch ina
m ing
u ation
m1 70
sh op
pl ac
18 6
watch ing
u43 31
m ir
p tion
m2 86
u2 55
wor ried
01 2
A THER
B es
h on
m 69
n ine
m1 64
m5 3
90 8
00 5
DE AN
m1 30
m5 54
m5 56
m4 15
fe lt
51 7
ist s
fin ite
F LE
u ne
re spect
wor se
44 6
love d
24 6
42 6
turn ed
B u
p ho
go in
88 6
cred it
W ELL
n i
in es
05 8
15 2
vis it
S KI
is ed
de pend
74 6
pro ve
VA DA
C T
st airs
m4 42
po or
JA CO
RIP LEY
D AR
se at
ar ri
51 6
Per haps
fut ure
m 75
L5 21
al i
give n
Bes ides
F EL
G en
o c
er ry
m1 88
m5 44
IS ON
P I
b as
m2 12
23 2
MAR THA
build ing
d ance
m2 84
L4 50
L4 78
30 9
11 6
70 7
18 4
KA TH
diffe rence
JACO B
S EN
m1 66
m5 8
m5 17
m3 45
23 3
34 2
long er
birth day
J UD
K ELLY
M c
in vest
m4 19
IL LE
Sh it
Sm ith
f low
m 65
m2 23
Th ree
expen sive
re ss
m4 34
70 4
ty pe
inv ol
Y LE
n es
u nt
ar ling
ut s
un k
22 9
LA S
GRAN T
D EL
se arch
m1 47
m3 13
L2 95
38 3
rest aur
m2 33
m3 01
po st
po se
01 7
10 3
fa ult
GRA DY
VI K
MEL ANIE
p ublic
m4 72
RO BERT
r at
m5 06
ON Y
EN ID
TT ES
u10 94
mach ine
m4 1
L6 27
81 5
? "
a x
m2 19
m1 21
m1 92
m5 53
m4 43
we ather
AN G
de red
dro p
SCO TT
HEN RY
S ounds
c at
s po
m1 36
TT ER
em plo
sm art
p et
st ation
L2 78
01 0
HE ATHER
? ...
L ou
ic a
ILL Y
bu d
care ful
Re member
u44 60
produ ct
chang ed
Cer tainly
S er
s low
m3 75
ro y
37 4
pr ise
gr ap
I nd
J ESS
ou b
L5 27
L6 61
EL LEN
72 6
10 6
u23 40
NI XON
a po
p hy
v ious
ke pt
25 4
so ld
lo ad
33 9
58 3
94 9
80 5
G IR
p an
in cl
AL Y
18 2
MILL ER
C or
R ENT
d ru
w ood
m1 22
ir t
te m
81 7
77 3
QU IN
WEL LES
? ?
R ose
v ous
an im
m1 43
L1 41
What ever
cer tain
B RA
u4 477
bor n
GI TTES
JAM ES
m4 26
L2 35
fe et
ST A
42 9
58 6
iz ed
t in
m4 57
37 6
71 8
SE Y
s at
m3 83
u4 449
STE VE
sum mer
c ry
m2 48
m3 95
qu iet
or s
m1 96
80 6
ca ught
G ILL
87 6
10 4
mis take
M art
N ick
c reat
Dad dy
A d
v ies
m3 77
if t
OL I
H OLLY
J AN
i ed
p ing
L2 90
EL O
EL YN
EV ELYN
C all
m 98
di es
mid dle
sme ll
s us
v ic
ot s
m3 88
10 9
dra w
C AT
v ide
m3 56
m4 73
lar ge
m1 80
RE GGIE
ING ER
colle ge
depart ment
m2 58
m2 82
u8 677
50 4
LA URA
si ze
D IG
m1 08
m4 22
part ic
mar ry
favor ite
L3 15
m4 54
40 6
com mend
m61 3
IG H
h ung
w ise
m1 89
ti es
gr ad
ren ch
Americ a
f ing
m al
m3 66
Bo y
E PP
p al
se ver
L1 28
ne igh
like d
mo vies
man ager
u12 40
Christ mas
W N
ag ed
74 9
pro per
SU PER
en tr
m1 25
m3 0
L1 21
85 8
Fr iday
ALEX ANDER
LEON ARD
FLE TCH
L ONG
te ach
Pet er
T Z
d a
L1 47
mo ving
bro ke
ta x
ame s
GIR L
' ?
t our
me mor
m1 85
L3 91
L6 51
50 1
EPP S
F o
m5 97
m5 79
m3 46
S ER
d oub
r ound
ha el
ES SE
CA P
W or
m5 20
m4 3
33 6
10 7
m5 24
de ep
his tory
pr ot
mess age
ou n
m5 34
su c
u34 97
G AR
m5 74
L1 75
55 3
la x
stu dent
finite ly
m4 41
te a
77 6
tal ked
LIN DA
sing le
Ma x
SPO CK
B ig
E MAN
p ly
in stead
L4 31
read ing
E l
b la
d uring
m4 88
ion al
u75 88
complete ly
A ARON
W OOD
m2 80
L3 45
L5 35
et y
L6 60
FF Y
M other
m5 48
IN S
if f
74 2
qu it
For get
lau gh
P ut
bo at
con tract
Th ink
LEN A
diffic ult
E ar
j ump
m3 9
m3 94
u3 555
CH ER
vers ity
MC C
B ud
G re
m3 86
L6 65
ro ck
ill y
Any way
Mic hael
A c
u c
at ten
L4 28
ER IN
ti e
lo y
AM Y
str ange
T ry
f ly
r ic
m5 92
L5 75
for ward
34 6
MON ICA
o s
s li
re lax
m5 26
L5 08
u44 21
Je ff
LIS A
pho to
B ye
s wi
re commend
m3 3
L1 27
any where
EL LA
sp ace
restaur ant
m2 11
L3 00
L5 95
40 2
40 3
nt y
if ic
ex tra
has n
vis ion
as ses
m1 42
m4 81
m4 13
ap ers
pri vate
wel ve
m1 57
sa les
MA S
ma jor
fin ally
move d
GG Y
A B
L4 30
PE GGY
C I
R ay
p ot
s itting
m3 65
L4 45
do in
u37 27
I EL
u ff
m3 87
out ta
CH IL
SID ENT
o k
m1 46
m3 31
lf riend
u13 23
gent le
sever al
j u
m 76
ut ion
are d
Sh ould
dri ving
cont act
org an
S IM
W hite
t ough
re f
ER AL
11 8
F rench
m2 41
li es
te acher
con ne
u49 41
H AL
c ru
c ket
r ich
s ake
ter n
u52 62
PRE SIDENT
M S
b ast
n ment
s che
we ight
sur ance
rad io
b ow
g ain
m5 09
L3 88
L1 98
u4 405
call s
FER GUS
GEN ERAL
prof ess
' ,
K ing
S IE
i v
me s
L5 15
L2 91
ast ic
BRO DY
discus s
b urn
w it
m5 82
L3 93
71 6
ner vous
u51 61
neigh bor
H old
S ANDY
c ab
m and
up set
co l
gir lfriend
dec is
Char lie
u501 6
DIAN E
C ENT
R ICH
b ucks
m1 1
L6 30
ho l
51 8
need ed
LO MB
cou n
av ail
LOMB ARD
c ise
ve lo
like s
11 9
70 2
m61 2
m1 87
pre pare
BA ST
me ant
L4 41
L1 08
u3 686
80 2
ETT E
prot ect
S up
e y
m 99
m il
s ong
m2 22
L5 85
go ver
IN DY
78 9
wed ding
D ick
M ac
M UL
M ister
f at
s of
m5 23
m5 83
m4 00
ad dress
E ARL
H IL
k no
L3 48
00 4
SU E
L 93
r or
L2 51
00 9
ap pro
qu ar
VIN CENT
u53 45
swe ar
Dam n
S atur
c ig
th or
L3 38
L2 45
ad y
il t
happen ing
danger ous
atten tion
F our
M ad
a be
w ake
re serv
m1 5
m1 15
L3 75
m3 1
L4 47
m4 9
av y
Mo st
m5 96
50 3
fil m
C CA
J ESSE
T oo
s ci
m4 92
ic t
un ity
78 1
m60 9
sit uation
appoint ment
M UM
Y LOR
as sho
ex er
RO CK
58 9
u51 64
TA YLOR
hur ry
pris on
bull shit
JUN O
J U
b al
m5 78
m4 32
id ge
ch oose
EN A
u25 11
THER INE
DU DE
cell ent
I VE
V ICK
m1 86
L5 98
IS S
MAR GE
per cent
invol ved
i j
m2 90
m5 87
m5 72
L5 97
m4 85
u13 64
fu cked
HIL DY
T ime
b oo
d run
h ood
L1 35
70 6
RE BE
TOM MY
REBE CCA
i tor
n on
m2 13
L4 81
are t
ne ck
DE LE
wonder ing
cur ity
avail able
E ve
J ames
d ig
ow e
L5 25
u6 03
CA THERINE
Some one
DU KE
fif teen
mi les
DIG NAN
b ird
k it
m4 48
L2 05
AN T
ex cuse
stand ing
u27 38
FA ITH
CRA IG
enti re
lan gu
M or
O ut
b ri
b ust
g ed
ha m
u8 300
co ps
cl ub
Mi ke
S us
Y E
m 97
p ark
m1 56
m3 43
L2 88
RE ED
CK ER
ber t
Jim my
mur der
L AN
ve red
L3 67
pr int
wr iting
di re
u78 11
fam ili
P RO
th ird
re me
m5 55
m5 63
m3 78
L5 11
B er
m1 55
L1 15
u1 612
u7 713
com for
ction s
SA UN
STE IN
whe ther
G ON
r ate
er a
ne cess
ex cept
jo ke
PE TE
u50 76
Every body
vac ation
Satur day
L3 20
u4 057
00 1
sp ir
SE BAST
BAT EMAN
SEBAST IAN
h id
m 63
ill e
77 9
con ven
SON NY
picture s
ount ain
G IN
H mm
c hen
k iss
t ur
be er
m2 09
Good bye
n in
o d
p air
m4 61
m4 76
u3 27
te e
pl ans
u43 98
adv ice
CHRIST Y
m2 8
m2 60
m2 61
m2 32
L4 48
L1 30
bl ue
u30 88
DO YLE
att ack
Wal ter
T IM
c ir
in surance
for ty
no se
78 3
u15 93
L5 68
L5 48
L1 55
85 2
sto ck
ser ve
real ize
JEN NY
doub t
F IN
L ea
L ast
n atur
er ing
L3 87
L6 40
STE W
EM M
sc ri
apo log
" .
e h
t re
u 955
L3 47
L4 21
gu est
stay ing
CLAR ENCE
D I
L3 05
m4 21
LA UR
sur pris
poss ib
NA THAN
fre sh
K IM
m3 92
m4 68
u8 683
are a
d ouble
is m
L1 97
ple nty
74 3
SH A
sho es
u87 67
KA Y
!! !
appe ar
FO LEY
SCOTT IE
b at
w ine
m1 73
m3 10
su d
AND REW
u21 96
mis sed
imag ine
MUM FORD
L 95
S id
S cot
le x
L2 21
u3 519
us ual
love ly
DA VE
em p
PAT RICK
TRE V
drun k
u gg
L5 91
m4 25
L1 95
et s
TH UR
sto pped
LAR RY
m1 10
m5 31
L3 71
ac ross
L6 35
ON E
live d
break fast
rel ation
dest roy
sud den
E LE
m1 91
L3 95
L4 61
u8 859
ur ch
de f
IL O
ul ations
u70 25
Mo re
KATH RYN
C ol
J ILL
M OM
W ES
o pp
th y
re co
en ny
L3 08
m4 97
sh i
85 7
qu e
di rect
GA BRI
comfor table
re ach
st ri
m2 53
rece ive
plac es
hung ry
G IE
u4 359
not ice
am az
00 7
00 8
lot s
Ca use
L on
t aste
m4 17
ic ed
L6 20
was h
ST O
JO DY
LO GAN
per haps
m60 7
k y
m5 2
L3 68
m4 20
00 3
MA JOR
10 2
AT OR
SH E
room s
RICK Y
figure d
m2 45
m1 83
got ten
80 7
u41 36
partic ular
P h
S UG
m5 42
m5 84
m3 79
L5 87
L5 14
end ed
sho pping
sha re
TA IN
pres sed
L 87
j am
m2 62
L1 48
u5 47
ab solutely
We l
af f
JO SIE
wear ing
K MAN
P at
m1 4
ac ked
pe cially
cond ition
John ny
vo ice
VEN KMAN
chick en
CAP TAIN
is on
ar rest
m1 53
L4 35
L2 93
L6 48
ul ous
ave n
kill ing
spe aking
ROBIN SON
is su
as y
m5 51
tr ack
tr ick
TE CT
RIS H
begin ning
f ur
es pecially
u3 606
81 6
MA CK
love s
DE TECT
UN G
LI Z
DETECT IVE
S ix
k er
m3 05
u1 416
cour t
suc cess
S pe
b on
e gg
i ot
j ail
or y
L3 61
go ld
81 4
18 9
m61 1
fam ous
train ing
u19 40
to t
L4 20
ro b
her o
cor rect
JOE Y
Every one
lear ned
N ELL
R us
i am
v an
y uan
be long
m2 54
m1 58
u1 785
L6 11
pp er
Look s
re w
u6 552
un less
sp ent
ING TON
ETT A
det ail
PAR RISH
K OR
v il
in o
L4 60
u31 71
bro ken
cont in
O S
t welve
er man
m4 10
ri age
trave l
tot ally
, "
m1 77
m5 1
L4 05
m4 93
L1 24
ic o
u3 803
sp ot
BRI AN
pat ient
OFF IC
H I
R ich
S ch
j ud
m 67
re cent
te ch
BUD DY
sk in
BON D
S al
g ift
m1 37
L3 90
u2 687
MAR ION
u14 69
game s
Bl ack
reserv ation
kit chen
K UR
T ed
W ar
m 91
m2 68
m3 21
L1 20
70 9
81 8
gr ou
int ro
eat ing
ORD ELL
A lex
C LER
M ENT
e qu
L4 11
L1 60
AN TH
L6 15
give s
UR ICE
MO ZAR
dec ide
ANTH ONY
" ?
L T
N INO
N ext
st ru
L4 55
L5 53
ut y
u2 314
ta pe
sto r
UD IA
cor ding
Ex actly
CLA UDIA
TCH KA
NINO TCHKA
F red
P l
W HA
v ol
se a
we ird
u4 115
new sp
u45 35
St ay
RAND AL
C ong
L4 54
L1 10
L6 25
u8 902
ab o
ti ght
sa le
fo l
an ne
ir m
de posit
TH IA
SE AN
UR SE
m60 8
pic ked
ash ing
OLE T
Gen eral
decis ion
gover nment
MOZAR T
s co
m3 96
L2 44
L6 33
listen ing
LOR ETTA
YO UNG
cli ent
s and
m3 85
He l
de finitely
wr ote
ear th
doll ar
u76 28
CLER K
B OR
F ather
st yle
m4 77
L2 20
nd er
not e
fe ar
CH IE
KE YE
u15 48
wal king
HO LAS
NIC HOLAS
HAW KEYE
BURN S
JESS ICA
C TOR
H oney
L5 93
u4 717
ER SON
po s
70 1
JO EL
LOUIS E
sche du
D IA
G ALE
k in
L3 50
m3 72
L5 65
ON ICA
te red
BAR A
BAR BARA
LY DIA
VER ONICA
ZA BETH
smo ke
ELI ZABETH
C ha
E ll
R IN
h um
o id
s ight
s uck
an n
m2 64
m2 74
u8 114
01 8
name d
miss ing
u69 40
app ed
tw ice
incl ud
opp ort
D UL
c ast
m 73
n one
in ed
m1 2
m5 29
u5 200
tr uck
On ce
u49 60
gen er
law yer
cop y
HAW K
FRED DY
J ake
M EM
S C
S ince
m2 27
L4 88
EL MA
51 3
af ford
fi ed
EM MA
E X
F ive
N URSE
g ra
k i
m 86
L1 37
ac ket
ain e
u25 74
LEN NY
JE AN
Wel come
S her
and y
m2 18
m4 7
u4 646
L6 45
ER IC
LE TTY
co vered
tr ad
kind a
F RID
G INGER
c amp
i led
u5 99
77 2
start ing
WH IT
Lon don
FRID A
S im
W ER
m ate
L3 54
L5 60
m4 09
L6 21
81 2
ROCK Y
f ant
g ing
p ush
L4 87
m4 30
m4 01
L1 67
L2 48
RA TH
CAR LA
u27 35
hor se
MITCH ELL
JUD GE
F IS
H ANN
K S
S an
S en
W ant
b unch
b lock
s car
in ation
re mind
m3 98
m3 57
L4 65
L5 80
we ak
u8 329
with in
lo c
put ting
kill er
JE ANNE
plan ning
Will iam
u69 21
MC MURPHY
Lo ve
gl ass
HANN AH
N THIA
m2 37
u4 729
u8 61
co ck
TH ELMA
will ing
JA SON
DA Y
CY NTHIA
anc y
Rus si
O ff
z en
re qu
u1 357
u6 980
pe ace
ST Y
u55 72
BAR NES
RU DY
cr ap
amaz ing
WHA LE
w at
m3 51
m4 0
u6 67
ro pe
ho st
de velo
85 3
had n
des k
u24 95
STA CY
intro du
K EL
c oo
he avy
L4 38
u1 54
50 9
too d
BO D
TER RY
di vor
c ross
re y
en cy
L2 30
Are n
op in
u31 25
cor ner
u840 8
u16 60
JULIE T
GILL IS
cig aret
R u
W IN
m ot
to tal
u7 959
L6 32
75 6
IL LA
JO SE
sur prise
ste al
u56 21
E GER
v y
m4 47
u7 883
u2 312
u15 68
BER N
JUL I
Ed die
O W
S on
b ers
d arling
st uck
m5 90
L2 58
u6 912
so ci
ill s
TH OR
15 4
TY LER
RICH ARD
L a
k ick
s ion
m2 72
L3 13
no thin
mar riage
u60 45
Mon day
WEN DY
pop ular
c tr
n ers
m5 66
L4 40
L1 54
L2 62
el s
RA M
pro ject
MAR K
u37 98
fl at
b out
h ar
th reat
se curity
be s
m1 34
L3 62
ag ent
man age
ct ed
JA EGER
KE VIN
St re
KA THY
u840 9
exer cise
M P
M er
b s
our selves
70 8
CH AN
CAR L
hard ly
ob vious
u48 66
aw ful
gen cy
ord ers
nor mal
sat is
assho le
necess ary
L ord
S hall
T ru
c row
L2 65
85 4
dy ing
RI AM
MI RIAM
des ign
med ic
second s
u82 40
CLAR K
M UN
u1 14
ho le
lo cal
MAR C
UG H
char ac
cus to
log y
smo king
C U
S p
L4 58
L2 27
u7 712
L6 7
u5 674
BO UR
LAND ON
THO MAS
langu age
L2 84
u3 409
u4 249
im press
tr af
act ing
BE T
UN CLE
u32 30
exc ited
hon or
traf fic
B ea
D ep
I AT
M ISS
b i
z a
m5 00
L3 27
L3 57
L4 72
L4 10
ver t
L6 55
ure d
und ay
ta il
LY N
IT A
St ar
LU C
BA S
Par is
BERN STEIN
M IN
g es
p apers
m1 82
L3 10
m3 40
al y
L1 17
u7 283
part ner
clo sed
u87 44
gre en
bath room
CHIL I
I ST
I ERI
L2 33
for ce
u7 936
fe llow
LE STER
75 9
77 4
ci ous
Be fore
lin es
ticket s
fort un
D OL
me at
m1 79
m3 23
L1 18
man ce
LO OM
per for
ass ist
bu ilt
keep s
prom ised
arr ange
CHAN CE
G OR
R ed
c ow
m1 48
L5 66
m4 39
we ap
bo mb
end s
MA Y
wr it
Be ij
boy friend
mag az
DRA KE
VIK TOR
product s
Beij ing
1 00
> ,
C ity
K ANE
s ad
m3 19
L5 62
ab ility
war m
u39 93
reg ular
rece i
trans fer
responsi ble
phy s
SUG AR
D ay
E m
U m
g ri
m 80
n ic
m1 16
m4 89
do cu
ac tive
AN EY
We st
am ount
70 5
itt en
CO O
kind s
u15 98
res sed
u41 66
qual ity
FEL LOW
LONG FELLOW
DUL ANEY
F in
H a
O V
R ob
n ational
r up
v a
se ss
be ll
m5 38
EN E
po lit
MA URICE
ang ry
Pro bably
JU DY
M s
s le
s illy
be ne
m2 42
m5 57
mo on
MA VER
08 3
08 4
cre w
u50 65
pay ing
cri me
bast ard
MAVER ICK
S unday
W on
d ed
v ar
m2 59
u4 349
L6 03
if y
ru les
u21 73
card s
CLE MENT
FIS HER
JOSE PH
CLEMENT INE
O ver
P AL
T EN
g in
w inter
as leep
L5 38
L5 26
We re
ur s
55 6
51 4
SH ERI
keep ing
NE IL
u15 35
Gr and
surpris ed
BOUR NE
SHERI FF
S a
e ctive
L3 35
L1 45
che ap
fore ign
spe ed
care er
play ed
u10 71
cut e
BRE AN
LIL A
imme di
natur al
M mm
c ake
d ry
n ur
p u
it ude
m3 49
L5 04
u5 909
55 8
15 3
late ly
grap h
bla me
OFFIC ER
E r
P ark
S AN
W atch
c ars
en ed
m2 55
u1 971
im p
sa ved
RU BY
CLA UDE
sub ject
d umb
i or
m2 63
L1 94
u7 53
u6 551
some thin
ure s
sto ries
u15 95
u15 20
key s
Ab solutely
BRA D
relation ship
C la
r out
m1 14
L2 71
u4 602
un ic
75 3
IL OR
ST U
CH A
com mon
ra ise
u61 36
SA ILOR
u90 17
HAM MOND
kno ck
Lea ve
reco gn
Stre et
H as
J an
M ust
R IE
p ig
s pl
L4 33
L4 34
m4 38
L2 60
u8 810
u5 455
08 2
15 6
comp et
Some body
GA STON
DOC TOR
u170 8
A w
A ID
L ie
T AL
d ue
m5 47
ac he
u1 952
u6 410
u8 633
u5 582
mo de
PH IS
u37 63
WILL ARD
u33 21
fl u
KO V
emplo ye
MEM PHIS
WHIT E
! ?
m ountain
t es
m3 11
m3 39
L2 47
ac y
u7 13
11 3
01 9
BE AU
fi le
au to
sal ary
D UN
E u
H al
w aste
L3 28
... "
L5 23
u8 218
ard en
DU FF
DON NIE
MARTIN S
WIL SON
D IL
K IN
L 81
M ILO
e ch
p ounds
u4 404
70 3
CH O
feel s
LIN D
u69 67
u840 0
L 80
p es
li er
ic le
wi ld
u6 983
u32 61
dream s
Lou is
memor y
fur ther
D ISON
T IN
m4 60
L1 44
u8 59
lo cked
ex plo
u68 22
des cri
cha ir
VI V
SU Z
NAN CY
rat ulations
B ack
I P
K ID
R ING
S ar
S till
f ash
eou s
ake d
RO SS
TT I
u71 42
air port
LU LA
u77 22
u32 66
NA PO
DER S
u26 91
quick ly
VIV IAN
NAPO LEON
B RAN
F e
H ot
I OR
K en
M ex
c la
p ool
er o
m3 93
m4 40
L2 18
li ed
u3 884
u3 486
u2 603
sup port
u21 38
JEFF ERSON
ev idence
hol iday
m3 25
u7 410
L6 28
u18 27
u34 93
att end
LOW ELL
PEN ELO
invest ig
Gre en
opin ion
PENELO PE
d anc
be ach
m5 43
L2 34
L2 53
u7 885
L6 18
51 2
u12 44
Bill y
B IG
B REN
R i
R ick
S KY
on to
L3 03
L4 44
L5 18
L6 62
u2 784
u5 56
co de
di a
u17 99
u67 60
u22 44
REN E
Bet ter
S ha
n uts
st on
ar gu
ex cellent
che cked
fi red
u50 64
u38 20
cam era
H UN
K ARL
T al
m5 71
m5 04
ad mit
ide as
pr ay
ng th
WA SH
light s
grou p
L 97
b an
is ing
or din
Ch ief
u11 78
u55 62
dri ver
hold ing
SAL IERI
ANDER TON
bot tle
t ree
m1 3
m5 49
L3 02
L2 94
ut en
L6 41
L6 52
ch i
fe ed
night s
drink ing
fight ing
JON ES
SKI P
B ro
L ee
m atch
ar my
le vel
u6 484
To morrow
ARL ING
BU FFY
BRO WN
ev il
dad dy
exam ple
IGH T
SAUN DERS
T en
li g
u1 916
ad a
com plain
RO PER
MA UDE
fore ver
name s
plan et
u20 65
app y
ele ctr
sou l
pract ice
coun ter
apolog ize
Hel p
fash ion
L 94
T urn
T wenty
l ab
m 64
p in
L3 76
L3 06
L4 85
L4 83
li z
pl ant
gr ab
m60 4
record s
sus pect
Bud dy
recent ly
G ee
H en
p is
u ce
L4 62
L5 05
L1 03
L2 57
u3 602
u1 255
fe rence
use s
bre a
u14 99
u780 6
C AM
L 99
P IL
T RENT
L5 07
L1 46
for give
u3 057
u7 28
ri ble
not iced
87 3
u31 72
BAR ON
BAR TON
u37 30
fin al
sk i
allow ed
Sus an
j our
L1 26
L1 82
u4 300
75 7
su ff
SH ELLY
led ge
VI OLET
WAY NE
F RE
J ap
M U
S it
b ra
L3 34
L5 33
L1 34
u3 713
ac tor
u2 502
78 0
ST AND
CH AR
fa il
u73 37
EV AN
AG NES
dru gs
D or
W I
d s
he y
m3 62
m4 74
L1 42
L2 36
gu ard
pr oud
cre am
u87 71
bed room
u62 30
Does n
exc iting
flow ers
fing er
J ane
g al
L1 57
id iot
il ities
tell s
kill s
bar r
responsi b
offic er
fol ks
uten ant
B ELL
R ILL
m2 10
L4 63
L6 50
AR THUR
EL WAY
55 4
CO M
start s
u30 75
gun s
pas sed
pas sport
Che ck
KEN NY
grad u
SIM ON
sof t
MACK ELWAY
B AL
I X
J erry
n ia
st aff
L2 68
ac hes
u2 938
sh irt
87 2
SE T
u35 49
HO OK
u677 4
BLA CK
CAT ES
JULI ANNE
B ull
C our
L 92
T er
V ic
W ashing
an ti
m4 12
u4 278
ri ous
u71 33
u35 85
wal ked
press ure
cri min
Char les
uni versity
CRO W
-------- --------
bud dy
BRAN DON
WASH INGTON
STAND ARD
A SY
P ret
re r
at a
se vent
be y
L1 31
L2 06
u4 584
u6 413
u65 63
cr ack
CRE ASY
QUIN CY
M ark
W YN
g a
p us
L3 46
ST ARLING
em er
BE CK
mar k
bre ath
buy ing
u63 67
Pr of
> ?
F BI
K IT
L 83
M in
O ther
S how
L3 36
L4 23
L4 03
L1 83
L1 84
L2 24
id enti
u4 505
u2 958
ch urch
ti v
im possible
u20 21
ICHA BOD
mi x
ef fect
YA TT
rid ic
inst ru
VICK I
schedu le
F ed
h ide
L4 43
L5 20
L2 79
u7 442
01 5
LA ZAR
und ers
ru sh
HAR DY
res ult
WAL T
bor row
TRA VIS
famili ar
recei pt
Washing ton
C r
D OM
L 78
M ag
R US
f ru
o il
L5 13
L1 68
L1 23
ant ic
01 3
talk in
NE GAN
hell o
WILL IE
au thor
u57 47
hu nt
loo se
KY LE
S OMER
d uty
n al
L5 69
L5 94
u3 283
ly n
ag ue
see med
And y
tr ade
bl ind
u75 24
u45 95
u21 47
show s
LI ZA
prom ot
depend s
OLI VER
LAUR IE
opport unity
SOMER SET
C al
H OR
S SA
e se
er k
m3 15
L4 07
u7 649
u4 214
-- -
co at
ce l
no ther
po cket
JA BE
ELL IO
u48 28
u18 11
Car l
MEL VIN
STAR KS
EMM ETT
JABE Z
W YATT
i um
he at
ve get
L3 69
L3 73
m3 64
m3 82
L4 22
L4 19
L2 97
L6 53
ce le
con vers
u25 85
CON NELL
Bet ty
concer ned
tele vision
psy cho
B ri
R ELL
f right
m ater
en er
ic ide
ic ked
u3 80
u6 649
some time
if ied
00 2
ple s
81 3
u75 74
u30 43
Gu ess
A ust
U LA
s now
v ive
v ice
at o
he ld
or ig
L3 56
L4 02
L5 45
u3 54
u3 252
u7 682
one l
wor st
pro of
help ed
Be lieve
cha mp
u52 69
sim ply
Dan i
cele br
> ...
G LER
J ORD
L ong
L 84
U p
a le
r on
an a
L5 22
L2 96
br and
u40 65
mm ing
u88 30
JORD AN
G RO
m 9
L3 92
L4 69
L4 42
L5 96
L1 85
L1 72
L2 98
u5 507
feel ings
u17 67
Ma jor
u677 2
DAD DY
ridic ulous
A nother
H ur
H ouse
K ill
m aster
L3 12
L3 52
L5 34
li ft
u3 784
itt ed
tion s
wr itten
u38 65
sleep ing
BON ES
detail s
b id
at ic
be ar
L3 04
L2 83
u1 272
u4 910
L6 23
u8 819
lo an
RO WAN
ra il
play er
big ger
newsp aper
E ver
F if
c entr
t ap
th ro
m2 71
L3 64
L5 86
ho ping
let ters
dr ag
lic ense
u23 69
num bers
Mart in
Ear th
charac ter
immedi ately
Hen ry
C ali
D ELA
L ittle
d ick
h ook
L3 66
m3 28
L4 90
L2 82
u1 983
u4 39
u4 79
00 6
RO MA
05 2
SH ER
u55 27
LEN ORE
pull ed
CRO IX
tee th
orig in
Cali for
DELA CROIX
C LI
D is
P SON
T ues
i k
... !
m3 17
m3 84
L1 13
L2 42
u1 089
u4 906
her self
ci es
comp an
sport s
PRO F
issu e
Rich ard
A UL
S outh
Z IN
m 8
n ature
t ar
in tell
ar ms
ed uc
al ian
ac qu
u2 74
u5 317
lo s
tr an
ELL ER
old er
job s
u31 39
cent s
u53 64
bor ing
Br own
coll ect
pie ces
mil k
LAZAR US
H U
L ON
O ld
d irty
w his
L4 46
L2 31
do gs
u1 407
u2 856
ea se
05 6
u25 63
u18 93
An n
att le
CON WAY
u62 66
CLAR ICE
cal m
BET SY
Pret ty
A UG
D el
L IE
M ill
T AR
in c
in no
is land
u4 281
u2 60
RE A
show ed
u43 93
eas ier
comm and
Ju li
ris k
sou p
prepare d
conven ient
CHIE F
b b
h oo
y n
st one
u7 666
ind a
ta ught
u30 31
IAN A
expect ed
u601 3
profess ional
STO CK
ELLIO T
Califor nia
K U
S u
T U
W FORD
d ump
f its
m ist
u ry
se ason
m5 62
L4 37
L4 82
L1 90
L1 64
L1 12
L2 54
li br
lo sing
SE TH
UR T
St ates
STE PH
lic y
Un cle
cur rent
GU Y
GU ARD
Le on
JAM IE
Bob by
anim als
D AM
E ight
M ur
s cr
L4 96
L4 57
L5 43
u3 707
u4 12
L6 44
ri ver
01 4
br idge
fuck er
u45 87
set tle
u72 21
io d
D et
V an
W Y
b um
m ap
me al
L5 51
L1 87
L2 46
u1 519
L6 8
L6 57
u8 880
ate st
em barr
run s
u81 42
MARY LIN
EM IL
LYN N
A in
A UD
P OR
r ap
L3 99
L3 24
u3 13
u1 215
TT A
sp are
u61 21
u78 69
BER LIN
HE AD
u84 98
sc ene
expect ing
bot tom
health y
T AT
e ars
f und
L3 49
ac hel
ne ither
ST IN
LO IS
sto le
leave s
cus tom
Tom my
FRANCES CA
medic ine
A ir
D RE
y ing
er t
ll ing
ar ant
wi re
po licy
sa ving
ex change
il ing
pro cess
them selves
MAR SH
able s
RI KER
BER G
sur vive
Un i
Com p
MER RICK
SER A
> !
D ude
H appy
K ES
S AND
g arden
m ood
re ck
ll i
le gs
u7 79
u6 258
up stairs
eve nt
Th urs
u68 60
Br it
JUL IA
u36 35
scre w
anim al
vic ti
WOOD WARD
Lie utenant
SUZ IE
T AN
b right
as ant
ke s
m1 84
L3 30
L3 74
L4 84
u3 357
ac hed
u1 017
01 6
ca pe
AT A
u75 22
comp lic
MILL S
emp ty
R ome
V IR
be lie
m3 60
m3 59
L1 69
L1 22
u3 557
u4 258
L6 24
L6 17
know ledge
15 9
u78 37
u81 50
drink s
Ho lly
PR IN
BB S
PI KE
MUL DER
perfor mance
Tues day
B ru
O F
c ous
s il
in de
it self
m1 35
L1 49
u4 183
ad vert
ce ed
po sed
ass ign
CO P
L35 9
IAN T
ear lier
app ly
ESS OR
serious ly
u780 2
NIC OLE
spl it
PROF ESSOR
B ALL
G erman
re main
L5 78
u4 752
ver se
com mit
RO GER
Th ings
AT U
Hi gh
u84 37
u74 23
QU AID
BRE E
deli ver
cir c
Eu rope
Prof ess
B ank
i red
p age
t all
re quest
L3 86
L5 36
L5 52
L5 56
L1 14
u3 308
L6 43
u6 46
u5 652
ter ms
55 9
BO YD
u30 92
u74 37
lear ning
comm unic
Cong ratulations
K ILLA
V ILLE
f et
re ed
L1 61
u3 611
u6 351
u8 84
our s
good s
u70 95
BU ZZ
DER ICK
eng ine
KILLA INE
I KE
V er
X ANDER
f urn
y s
he aven
L5 47
m4 90
L1 43
u1 106
u7 089
L6 02
Do c
ES AR
spe c
u80 88
u57 71
u90 00
u56 68
NO W
Tho mas
H ard
J ason
M M
W OR
r ay
at tr
it ions
L3 29
L4 12
L2 19
u7 343
ti fic
am ing
BO O
SH EL
u45 92
pay ment
stay ed
u81 97
As k
hor rible
CRA WFORD
Ste ven
DIAN A
tele phone
! ...
B ur
D ave
U nder
c ure
m2 26
L4 26
L6 64
u8 950
end ing
su me
ser ved
u55 45
sha pe
high er
Chr is
Un ited
SY KES
B RYN
C TRA
E T
L4 71
L5 02
L5 84
L2 85
L2 87
L6 14
80 9
ES SA
God damn
u37 94
gre atest
u54 96
PR ICE
ELE CTRA
cla im
" ...
D ATA
a a
d un
g an
m 81
p il
re search
L4 99
L6 26
55 0
u75 73
big gest
show er
u70 88
u65 32
LU CY
u53 94
sk y
GABRI EL
wat ched
danc ing
G RAND
S LO
g ro
s our
t ast
se ction
L3 41
u1 859
u1 784
ake s
un ny
every where
ma le
u55 22
count ries
MO UR
u51 38
Al ways
med ical
aw are
u58 00
Ro y
KIR STY
fast er
GU MP
Com mand
follow ing
BRE TT
ERI K
AARON OW
sudden ly
convers ation
libr ary
B AND
K LU
S y
S ame
c ro
m are
p un
on line
ha bit
L5 54
m4 66
L1 93
id s
u4 555
u4 808
ch er
mean ing
sp ring
OM E
u38 91
QU IAT
ball s
SAR A
deser ve
egg s
BAS QUIAT
BRYN NER
C INDY
F ind
N OLD
S MI
l oud
r ant
u me
w is
the art
L5 58
al ous
L2 74
u1 457
L6 36
ad m
ad s
ti re
50 8
na il
MA YA
u75 94
Fr anc
NOR MA
cli mb
A S
C ra
K ING
T MAN
t u
z ing
re present
L4 27
li mit
all ey
u3 277
ac tiv
ter y
CK ARD
let s
pr in
help ing
hi red
In ter
CA SE
u30 50
St ate
dam age
u69 44
beaut y
u33 41
gen eral
PAR KER
tem per
swi mming
Bru ce
A A
M ama
O D
S ho
W EY
th r
in cred
m5 35
L5 64
am ong
ak er
u10 42
turn s
u68 45
BA BE
JER E
Eng land
ward s
SUS IE
DICK SON
hang ing
foot ball
LIL Y
sci ence
Sher iff
MUN NY
bey ond
W il
e theart
l one
n is
p ants
t it
y ard
li p
L6 16
u8 714
u5 25
u5 11
fe red
RA S
gu arant
DE WEY
head s
u10 64
u40 20
John son
u57 50
Ro bert
gre ss
dro pped
u574 6
len ce
dru g
vide o
tax i
Thurs day
H OMER
L 82
S UL
d ressed
p ers
L5 89
u6 95
u8 38
u5 310
know ing
LE IA
pro vide
CK ETT
ru le
u11 08
u78 77
u53 97
SEY MOUR
wit ness
TREV ES
jud ge
Profess or
E VER
c ing
i ans
st it
L3 80
L2 92
TH OM
good bye
sto mach
u60 68
Li fe
stre ngth
bag s
u780 5
SCH A
perfect ly
TAL LEY
L 91
T ANN
h arm
L4 39
u1 273
u4 451
u6 555
got i
per iod
la id
MI ER
St an
u87 70
To day
ZA CK
Ho pe
Tr ust
mad am
pur pose
student s
BAND IT
H OL
K ar
P op
Q ue
T RU
Y a
j est
m 96
m5 10
L5 76
u7 856
L6 34
u8 623
u2 815
ti p
u75 93
m61 4
Have n
Ex cept
log ical
TO BY
DAN IEL
enjoy ed
concer n
tem pt
neighbor hood
writ er
emer gency
A gent
L 86
M OLLY
i ence
j acket
L3 78
m3 54
L4 67
L4 14
L1 38
L2 32
L2 49
ic y
u3 777
u6 633
ne l
mo b
un cle
MA T
fa ith
em ot
UN T
inv ited
BI ALY
AU STIN
Jeff rey
fru it
BIALY STOCK
A DELE
S w
W IG
k a
L3 96
u8 410
MA DELE
dis count
u73 24
far m
six ty
Br ing
reason able
brother s
DAN A
u42 95
GEN E
Ho ly
chang es
pack age
Wor ld
Col onel
BOO TH
THOM PSON
MADELE INE
N ah
R el
f irm
L5 42
L1 29
L1 76
L2 69
L2 39
do zen
AN A
get tin
so cial
ex ist
LA CE
u85 00
check ing
TON Y
tri al
study ing
squ are
vir on
possib ly
receive d
employe es
C ool
D u
M any
N one
R oom
W he
f ed
i res
p hi
en ces
m2 97
L3 33
L4 13
L1 73
u3 62
u4 710
u2 415
ck s
CA ST
IT Y
u68 96
u84 67
u72 95
par king
door s
u46 31
shoot ing
uni or
VAL IANT
gentle men
Hot el
ener gy
inno cent
P re
f lying
l ugg
r ot
L1 19
u3 273
u1 319
u1 152
u6 208
u8 674
ne goti
MA GGIE
US S
HE ALY
An na
ins ane
GA ST
fix ed
swi m
trad ition
introdu ce
nur se
Dani el
custom ers
KLU TE
D LER
F LOR
c and
f an
f ra
g ate
n ut
is es
be came
L3 25
u3 604
u1 005
L6 19
u5 243
sh ar
LE VEN
use um
ex press
ul a
u55 24
u70 37
Br ad
u26 88
inv ite
ext reme
Sen ator
magaz ine
lone ly
LEVEN E
C le
S tr
a do
b ite
c hat
g ree
re pe
ar ry
en ing
m5 15
m3 61
al d
L1 80
u1 184
AN ZA
L6 22
u6 114
IN I
fi les
hear ing
bring ing
open ed
u9 20
ZZ I
leg al
mir al
Franc is
B ab
C hi
E le
G or
N EL
W ay
st at
L4 06
u1 806
am b
JA Y
IS H
ta lent
hi re
understand ing
app lic
cost s
u170 6
Mart y
proper ty
bird s
contin ue
compan ies
viron ment
H or
N AR
T ri
r ick
u 915
v ot
w ers
L3 17
L1 11
L1 33
L2 02
ac cess
It alian
LO VE
ANN ETTE
BO W
CA S
u60 98
matter s
u58 91
VI ER
PR IE
BLA DE
cry ing
Ad miral
shi ps
S OO
b ly
o st
or dered
L4 74
L2 03
u3 801
L6 09
LE X
CH ARLO
qu ot
ct ure
find ing
NE O
most ly
CAR LO
u65 23
ell y
u28 47
WAL LACE
u72 27
fre ak
secret ary
KEL VIN
thro at
Comp any
CHARLO TTE
F TON
L aw
Y ep
w ast
st ea
L5 06
L2 41
No pe
RE ILLY
RI B
part s
PA ULA
u41 92
u80 65
u72 37
KI TTLE
u574 9
AG ENT
abo ve
F KA
H ON
c enter
v io
the tic
it ation
se par
L1 06
u3 584
L6 12
u6 622
ple asant
but ton
RO BY
pre gn
BO OK
spe ech
ru b
u61 90
u71 58
KA FKA
av oid
inter net
posit ive
u42 68
COR N
COO PER
C as
D ea
S WAN
W OO
n u
v ill
ay lor
L3 58
L5 44
L5 24
L5 72
u1 906
u7 226
u6 76
co late
no ise
RO SEN
05 3
BER NIE
ster n
open ing
u88 67
Ind ian
quar ter
divor ce
Tal k
dun no
jest y
SOO ZE
S EL
T aylor
c ult
e con
s ne
be ef
en vironment
u7 319
u6 204
pl us
com in
who se
u55 26
late st
u38 43
ste in
Gr ace
je alous
fortun ately
A VIK
D en
P LA
g am
r um
s ie
L5 03
L2 29
we t
u1 405
are nt
too th
bl ing
cl asses
sup p
HAR PER
SA AVIK
u46 30
MC CLE
sex ual
fac tory
recogn ize
F RY
J en
M m
b read
k ne
p i
p ity
ll e
se es
L3 89
L4 91
L2 17
L2 04
gh ost
li ar
u3 819
u2 452
im pressed
up on
MA TH
LA DY
um ber
est er
au di
u79 40
hu ge
adv ant
deli very
hid ing
Bro ther
responsib ility
Uni versity
SHEL DRAKE
TANN ER
WIG AND
M EN
O b
b by
m ic
p iss
s or
as ing
L4 89
L4 56
L5 16
u5 951
u5 615
bo dies
ul ation
end er
clo ser
u50 74
u73 66
eas ily
cha ll
u79 65
BB IE
vir us
ju ice
tur ning
Mex ico
lugg age
D ES
D RI
d ish
st ars
L4 77
L4 17
L2 59
u3 87
u4 216
u6 612
u6 696
IN DIANA
DE CKARD
JOH ANA
u51 73
THE A
STE ED
u14 63
u82 62
pain ting
Bl ue
sell ing
ative s
arri ved
spo ke
WOOD LY
guest s
develo p
ordin ary
HOOK ER
cous in
5 00
C ount
H ad
O pen
Y ah
g ers
o v
p ian
L3 39
u1 510
L6 49
The ir
ir ing
So on
che ese
night mare
tor ney
ans wers
u75 80
u70 42
set t
reason s
ele ven
Har old
pain t
near ly
CHRIST INE
carry ing
ni fe
stor m
Bull shit
G WEN
H u
I nt
i us
m 7
m ama
n ap
r are
in cre
u3 656
ac cording
u7 932
ant a
some how
HA GEN
u21 05
IAN O
u60 95
BU FF
hurt s
VICTOR IA
ene my
spir it
LUC IANO
MARSH ALL
WOO DY
F ar
T im
W AR
W ood
m ut
L2 40
u5 32
us ion
ca ses
RO DERICK
cour age
u31 05
u65 72
u17 48
u12 48
gg ing
stre ss
u63 98
Ve gas
GAL LA
Po or
CRO CKETT
GRE EN
VAN ESSA
THO S
oper ation
loy d
fant astic
coo per
' ...
A GER
B ad
k nife
w ide
ll ed
L3 77
ed s
u3 012
AN O
u2 557
itt y
MAN AGER
CO TTER
u40 91
u38 29
person ally
deal ing
u49 97
GA BE
STAN LEY
mur dered
scre en
IEL D
Scot t
EX LEY
DRI VER
A SH
C ut
D US
E K
E LENA
F IELD
H on
H all
L is
R y
S and
f are
and er
L4 24
L2 08
u7 683
RA SH
com b
RE E
il ty
look in
FF ER
low er
soon er
cho colate
cu rious
cook ing
mention ed
RASH ID
! "
A ye
P al
T on
v ille
w are
is tr
m5 6
L3 31
L4 52
L1 91
u4 476
L6 59
u2 24
mo tor
di et
mon ster
Would n
cr it
u18 46
De ad
par don
Un til
Je w
u780 9
mag ic
dist ur
oc cas
TREV OR
Hur ry
intell ig
complic ated
Dea th
S W
T ELLY
U CHO
p ir
t ag
L5 67
u1 696
u1 642
u7 676
u2 980
u2 371
ne g
like ly
care fully
IT Z
u70 55
THE W
lad ies
att itude
det ective
GRE GOR
Nor man
equ ip
AUG GIE
A dam
B re
F UCK
L ANE
O LA
S po
Y o
an o
it ary
m1 76
m5 67
L1 70
L2 12
u1 479
u7 384
u4 73
ter m
ain t
po l
JA C
pr ices
Who a
friend ly
u85 45
u52 40
u26 21
tru ly
ele v
val ue
forgot ten
FIN NEGAN
K now
N IGHT
P art
U TA
w ound
L3 21
L2 26
RO L
af fair
down town
Ch ic
care s
u71 80
u73 67
NOR A
cha se
swe etheart
terri fic
conf ess
fill ed
cigaret tes
JAC QU
D REW
N U
T ra
T ai
W ed
y o
re gre
ha i
u7 349
u7 515
my ster
de cl
ind ust
tr ay
RA T
ist ic
ID E
gr ade
play s
u11 33
u45 46
DO D
gg ed
VA LEN
mi le
dro ve
mb ers
Mi les
gentle man
bes ides
unders tood
Bab y
G OOD
L ARD
N IS
O w
U PIN
g age
n ig
r am
s ac
v ote
th rew
an cial
it iz
L2 22
L2 77
ac le
u1 351
u1 614
u8 657
ON EL
po ison
How ever
il ar
AM ES
gr own
su its
m60 0
OK IE
JE ZZ
TA UPIN
CON STAN
BU CK
ug ly
Ph il
JEZZ IE
D es
J ones
K LA
b age
c il
r al
u3 443
u3 501
u7 372
u7 942
u4 315
LE ER
AL BERT
Th irty
che st
hi bit
Fr ance
u64 99
RAY MOND
bri ef
custo mer
sevent y
attr active
E asy
H ome
N ARD
S ue
S even
S ING
T y
b are
i als
it z
L3 42
m3 07
L4 09
for ms
u3 600
u4 06
u8 20
u8 375
u5 859
LE IN
ag on
ast y
IS AB
pr ote
dis appear
CA ESAR
iz ing
u64 34
fall ing
PIN K
whe el
sw itch
fell a
gar age
KUR RING
Russi an
GRO UCHO
inde ed
MCCLE OD
G over
K o
M aster
N a
O s
P ri
R es
S ally
e cut
f la
m ass
o thy
L5 99
L5 49
L5 10
m4 14
L1 65
id a
u1 326
u7 111
u4 210
L6 42
u5 971
ch ose
ED IE
spe cially
BER LY
Al so
sha me
NOR VILLE
exper t
follow ed
COR KY
lead s
fort une
bill s
KIM BERLY
requ ire
Dep art
BREN NA
arent ly
G HER
I m
I ER
L in
L inda
f ro
r ange
it che
L3 26
L4 25
u4 92
u2 470
u2 010
LE A
de gree
gu ilty
MAR A
ru in
CAR E
IG OR
u80 45
point s
u47 32
DEN NIS
Bu zz
sco re
GALLA GHER
Chic ago
B IAN
C ARD
L loyd
R un
S we
s kills
the ory
as c
L3 81
m4 70
L1 88
u1 804
u8 808
u2 484
u2 253
ro of
il a
uck y
ang ed
pic king
u44 34
u67 70
An nie
ins ist
u33 90
CRA SH
STAN TZ
ZZ O
Qu ite
Dan ny
brain s
deser t
Brit ish
SMI TH
guarant ee
Rel ax
applic ation
BIAN CA
P AM
S P
W r
in ct
it a
es cape
u6 615
OR ES
tr ap
ng er
IG AN
LU THOR
Sh hh
swe at
Ar my
Per fect
MCC ALL
dire ctor
sand w
DOL ORES
mode l
STEPH EN
SCHA E
. ,
A CHER
B ELLE
D S
H aw
T ex
l un
s outh
ha vi
L3 32
L3 07
m3 50
we st
u7 729
u4 208
u4 979
u4 719
im um
EN ZO
ble w
dis hes
show ing
u37 38
u73 23
Ma jesty
u89 23
Pet e
WILLIAM SON
enter tain
conne ction
scri ption
obvious ly
assist ant
MAY OR
sess ion
Sar ah
result s
tran sport
G imme
J ud
M al
M el
P ONY
R a
Z U
a ver
p he
s is
t ong
w ha
re p
u7 938
u4 317
ch ances
gu e
um n
CO UL
comp li
bre aking
wal d
u58 20
sign al
Bo th
Le o
Lu ke
lit er
dist ance
ANDREW S
KOR BEN
includ ing
Ry an
Depart ment
C IS
E ast
G ra
I I
T e
d are
p up
p ills
r ace
in er
as hed
u3 879
u4 82
L6 31
u8 687
de mand
let ting
bu ried
DE BBIE
u71 23
AD DISON
sen ce
TO D
ane se
Gr ant
pat tern
nor th
gy m
emplo y
cab in
OS BOR
phys ical
Dor othy
promot ion
lli ant
TRU MAN
UTA H
Wed nes
OSBOR NE
A lice
G LEN
O UT
b ing
g ie
j ack
k ins
p ow
re sume
L4 86
L5 83
L1 79
L6 13
u2 271
u2 618
ce ption
te mp
IL A
RA E
who m
LA M
u75 97
u75 76
u55 28
CON NOR
LI TTLE
u36 44
KAR RAS
u9 21
With out
Se cond
clean ing
u29 97
street s
appe ared
Joe y
arri ve
GON ZO
SHE ILA
success ful
weap ons
docu ments
DOD GE
D un
J ose
M ars
N ED
N AD
a while
d ust
g ang
l ap
 
re lease
and on
L3 83
al o
u1 243
u7 614
u6 66
u8 103
MA TT
ble ed
AM AN
ci vi
stand ard
u50 97
u85 87
u73 28
Un less
REN AUL
ELI US
RENT ON
AUD REY
SEL INA
Ton ight
equip ment
elev ator
NAD IA
RENAUL T
A u
C ED
j unk
p iz
s in
re lig
L2 99
u3 353
now here
u6 257
u8 773
sh ark
im prove
lo ss
ent ly
ate ful
RO W
di o
Good night
PA INE
iz ation
cle ver
u40 93
u72 20
law s
clear ly
JANE T
Mad am
educ ation
incred ible
A my
B LOOM
G Y
G ir
H OO
L 73
L 76
d ers
d ata
f li
p red
s had
se y
L4 04
L6 46
u8 803
u2 918
u5 224
ag ne
ag reed
IL SA
use ful
ge ant
ES E
ment al
ass ume
su icide
BE TT
int en
u75 33
sit ive
u10 77
u78 49
cor por
u77 39
cra w
u49 91
u26 37
send ing
DON NA
KI P
COL ONEL
test s
BRI EN
por ter
sug ar
state ment
bas ket
pis sed
Holly wood
JACQU ES
F LA
M Á
N AT
P OL
b attle
re m
re put
m2 77
oo th
u1 712
L6 07
u6 251
u2 37
u5 984
ch ief
ch anne
ce an
AL MÁ
rom ise
ICK S
AT SO
UL L
please d
Re ady
believe d
u50 46
u35 99
lor d
u76 63
u54 95
COL WYN
sub way
agree ment
CHE Z
stri ke
impress ion
TEN ZIN
SAN CHEZ
crimin al
origin al
TU BBS
SLO AN
LAM BEAU
GY ATSO
ALMÁ SY
B us
F OR
J ess
L 88
L arry
p unch
w ing
to i
it ure
st ro
m2 6
L1 07
u3 204
u3 157
u4 704
u6 009
u2 675
LE EN
LE LAND
AL D
ex act
down stairs
int end
MO OKIE
u40 96
sho ck
u48 96
u20 36
inter national
u84 28
sing ing
young er
u89 65
Ste ve
deli cious
En ter
GAR Y
LOOM IS
incre ase
KLA ATU
Wednes day
F IR
J enny
K ay
P S
e red
s word
ll s
be havi
ab ly
de rer
AM BER
br own
ci ent
em s
SH OR
wait ed
DO W
fin ancial
cond itions
CON C
az z
gl asses
cigaret te
Won der
pregn ant
Spo ck
NU KE
C ANDY
L as
d ess
s am
s light
w ave
L4 64
L2 61
u6 109
u2 629
u5 611
ad or
ur gent
but ter
rom antic
ca le
jo int
dis appoint
u25 75
u51 44
Sh ang
move s
VI OLA
QU E
u46 47
u840 1
MOR GAN
MARIE TTE
tre es
direct ly
LIND SEY
veget ables
B LE
c ue
d ar
in y
ay s
u6 378
u8 938
u8 259
u2 69
u2 481
u5 80
u11 63
u25 32
u50 99
u67 65
bring s
sign ed
sol ve
Americ ans
lead er
Ben jam
Nor th
psy ch
boo ked
bust ed
dire ction
satis fied
POR TER
NAR CIS
COUL MIER
NARCIS SUS
F air
G LOR
J on
K NO
S ing
T re
T ony
W all
e th
p ath
ou l
an ch
me re
be coming
L5 41
li qu
ic king
ac com
u1 858
u8 186
u2 88
un usual
ur t
wo ke
CO BB
BE E
home work
u61 65
ame d
u41 21
u84 62
Ro ger
Could n
serv ices
vi ol
power ful
SO PH
JOR DY
oun ce
weap on
sle pt
CHA SE
Command er
Gor don
tong ue
GLOR IA
H ARD
O Z
b ie
u 980
se le
L5 37
L2 38
u1 086
u6 953
mo der
con ference
RE ESE
sto len
ANN ON
gr ateful
UL LY
RI TA
u25 95
DO OLI
u37 67
u50 51
damn ed
u24 62
u43 25
Ro ck
u33 45
u82 61
Je an
terri bly
sal ad
HAN A
val u
CAL VIN
laugh ing
KUR TZ
client s
Que en
ASH LEY
CONC ANNON
DOOLI TTLE
I RA
M en
b a
m useum
p ure
t an
re tire
.. ...
ve y
u1 883
u5 201
un it
right s
com mission
help s
talk s
Re al
u70 72
hard er
bro ad
u57 41
conf used
chang ing
concer t
PHIL IP
spo ken
SUPER IOR
temper ature
LOVE TT
L V
O T
S qu
an aly
be l
of fered
for med
u8 475
u8 624
u2 209
u2 157
AR T
not es
ck er
sa f
ST AT
u10 87
cond u
Al most
sm ile
aw ake
char ges
adv ance
u66 64
box es
wall et
itor s
docu ment
embarr ass
furn iture
CORN ELIUS
pian o
Benjam in
? '
A BA
D own
K RIN
M ed
c able
h ill
m ous
in ch
re view
to ri
L1 53
u3 311
u5 15
u5 684
ri but
te ar
IC O
AL ABA
plan ned
cr ash
sc en
SY LV
u86 31
comput ers
bull et
SCO TTY
pres ident
creat ed
SUPER MAN
sli p
bal ance
Mor ning
William s
descri be
fright ened
mater ial
Hon or
regre t
ALABA MA
F LO
V ON
V IT
p ump
st ink
m1 38
m5 59
L5 90
u1 413
u8 443
can cer
He len
am i
ul ate
RA D
KE AT
live red
real ity
u41 62
du de
u67 37
war rant
par ties
REY NOLD
reg ard
doctor s
blood y
STAN WY
mach ines
Mic key
ENA S
Jap anese
GRAND FATHER
CARD ENAS
Jose ph
FIR ST
saf ety
REYNOLD S
STANWY K
F a
H it
H ang
L y
M ID
N in
j erk
l u
p ple
t un
L3 19
u7 381
u7 206
u4 21
u4 407
L6 63
u2 876
The o
sh ield
so m
de cent
de vil
con centr
other wise
che aper
thought s
dis ease
CA IT
u25 21
u81 71
less on
pret end
u14 20
bar gain
DER GAST
fre ed
HELEN A
cap able
PEN DERGAST
fle et
JON AH
base d
oc cur
destroy ed
tit le
FLOR ENCE
CAIT LIN
. ]
A pp
F ort
M ight
b ound
m ask
r ab
se ats
hat ed
L3 22
L4 36
oo p
u1 307
u1 306
u1 116
u8 879
u2 506
ti ed
ST ELLA
CH EN
com mer
pro v
over time
CO LU
u15 94
u55 91
PA TTER
Al an
sha ke
form al
MON T
TED DY
det er
mur derer
Gu y
WILLIAM S
famili es
Sid ney
Rob in
brea the
reput ation
PATTER SON
A pri
B IR
B RILL
D ar
L ILLY
S AT
S anta
l ake
u 956
z ed
L5 12
id ing
ic an
u1 210
L6 04
u6 817
u8 285
ag ing
ag ues
ie st
la und
ma id
course s
head ing
u11 72
IT RE
men u
u35 20
u65 93
Any body
An ge
u58 21
tow ard
gre w
thousand s
Ste p
bur ning
Ser geant
Off ic
Hal f
CHAR LES
Lis a
Apri l
D ie
L ow
L 89
O t
O UGH
P erson
P REY
R achel
S uch
S pan
W ang
W IT
f ried
s pre
it es
ow s
ic ient
u3 979
u3 117
u3 058
u6 777
u6 112
u6 583
u5 678
IC IA
ex ecut
MA CE
ite ms
hi p
Be at
CA SS
head ed
u11 95
u11 88
bad ly
house s
u65 48
STE VEN
Ne ither
u27 68
u58 40
spend ing
DICK IE
MB US
Cl ark
gar bage
print s
EMM CHEN
JOSEPH INE
FLA EMMCHEN
toi let
KNO X
COLU MBUS
PREY SING
C CO
C ont
M u
M oney
M itche
n am
th ou
st al
al arm
L1 96
L2 23
li ps
u3 642
ac es
u5 02
We b
de b
de mon
de livered
art s
ul ti
own s
IS E
GE LEIN
SE CRE
find s
BE A
head ache
u11 91
u25 96
real ized
JOHN S
JOHN SON
anc ed
Me an
PAR RY
u86 97
Bar on
je wel
El aine
burn ed
suck er
manage ment
rup t
electr ic
circ um
PRIE ST
istr ation
KRIN GELEIN
A ng
H am
H ild
K ON
N aw
V i
m 85
n ar
n asty
at torney
ve h
m4 83
al co
L2 25
L2 13
u2 205
u2 786
u5 71
u5 53
u5 976
u5 313
ad ing
AL FRED
MA D
help ful
ach ie
SH U
ten nis
ner ve
cre ep
u35 45
Ex cellent
walk s
conf irm
rid ing
fil ms
loy al
appro ach
scri pt
pu bl
gradu ate
Cour se
CLI FF
SAND RO
Mitche ll
A fr
E specially
H EL
L 74
P lay
S Z
T RIP
Y ear
b one
f ancy
v able
th ir
st y
L3 98
L1 92
et te
u3 980
u6 64
AR I
un ion
EL ER
but t
TH AT
po ll
pl astic
ex p
fa x
DA WN
Be en
side red
u21 44
cre ate
u85 98
AD ER
str ict
conf idence
eight een
PRE ACHER
Lu cy
CLAY TON
CHE KOV
quar ters
bri lliant
WES LEY
arrest ed
adm ire
Inter net
JERE MY
EVER ETT
Kar l
extreme ly
sett led
LEA F
B al
E ither
H im
J unior
c itiz
r ink
s sed
w an
z er
st age
ar med
en a
do m
u1 758
u4 785
u4 112
AR TE
ir ts
some place
IN DLER
con sidered
pro ced
ick s
sure ly
RI AN
PA ZZI
u37 66
BA BY
fun eral
AD RIAN
u74 60
u47 37
SCH INDLER
pass ion
COR BETT
resp ond
DAR RELL
ju ry
Vic tor
tap es
PAM ELA
behavi or
B on
C am
E h
F re
F ARL
G lad
N ight
W hile
Z ON
h un
r ag
r ise
Ó N
re ward
me asure
he st
ar ily
as ha
u3 182
u3 518
u7 619
u7 786
u6 706
u8 95
u5 216
ri e
po et
pl ate
sa il
back ground
wo re
every day
sto ps
SE FTON
MI R
u35 25
u73 99
u28 94
u14 68
fr ank
u36 48
ALL ISON
MAC FARL
mid night
JUN IOR
slow ly
Ac cording
RAM ÓN
SKY LAR
tar get
MACFARL ANE
. ?
B ELA
C ub
F er
H onest
K KO
K elly
S n
to ast
ll er
be red
L1 71
u3 934
u6 659
u2 289
u2 746
u5 616
fe ver
LE TT
bu g
ang le
ath y
cer tific
u68 29
u17 55
VIN CE
u23 20
u34 68
war ning
char ming
u47 90
eight y
Ju ne
vent ure
bur g
RON NY
WE IR
TRE E
fing ers
sci ent
SKIP PER
jour ney
mix ed
SWAN A
advant age
A gain
H Y
K RIST
V en
Z LO
f ab
n s
th ri
re call
an cient
u4 934
u6 65
u6 259
u6 379
u8 88
u8 355
u5 85
u5 986
can cel
art ist
ex hibit
Th ought
um my
KE OUGH
Go ld
Be st
IR IS
hand some
St u
u80 34
fun ction
SAM I
u46 67
BUR G
fish ing
base ball
flow er
LAS ZLO
PIL MAN
FRE DO
SUL U
MAT THEW
ISAB ELLA
Span ish
SZ PILMAN
I US
M ade
T or
b uck
c ong
f ake
i ers
t ank
v ard
me di
st ant
se qu
hat es
as sed
u3 216
u7 057
u8 937
u2 692
EN D
there d
tr unk
CH ANG
fo cus
ID ER
u61 34
HE CTOR
set s
des per
An ne
u74 40
stre t
pri or
u76 37
sol id
Co le
KAR LA
TRA CY
rel ated
Pr in
trave ling
color s
WIL LOW
oc cup
load ed
soci ety
champ agne
victi m
spec ific
pil ot
audi ence
piz za
freed om
P ull
S c
f y
in ing
re place
ke ting
L3 18
ic tion
u3 154
u6 742
u8 916
LE STAT
de cor
ive s
con vin
pro gress
eve nts
LO TTE
try in
SH IN
mon d
op s
mar ks
u45 40
u45 48
u61 27
St art
u40 29
u81 98
PER RY
u18 94
u23 94
u64 20
ME G
u601 2
JESS IE
sus pic
photo graph
iv id
SAUN DRA
possib ility
hum or
SC ULLY
DUN BAR
HUN TER
bra ve
C ons
L am
M us
V ir
W o
f lies
g uts
in flu
ic les
u2 256
im ate
if ts
ind ic
gu ide
ru ined
dis appeared
u37 25
ven ue
u81 70
check s
GRA Y
u28 51
gg er
land s
high ly
fact s
cons cious
pull ing
STON E
pract ically
grow ing
Ear l
mil itary
Jan et
AMAN DA
laund ry
circum st
C TER
D ou
F UR
F unny
I STER
J am
N ational
R on
S PEN
T ROY
V in
a lent
o le
p ound
s well
s tood
re nd
the ater
L4 49
L2 73
u7 40
AN YA
IC HE
bo red
tr ail
con stru
ID IANA
om b
u78 78
u35 32
u87 97
u87 68
u32 25
MAX INE
sy m
sy mp
u16 63
log ist
Lo s
mill ions
Se ems
ANNA BELLE
clean ed
MAC REA
u601 9
Got ta
u59 23
Par don
RID GE
Sup er
rout e
investig ation
VIR IDIANA
repe at
CAS PER
MACREA DY
C ER
D ear
G ar
H ong
H ELL
K ane
K ONG
O ly
P an
W ork
d irt
e ed
g all
o cean
me mbers
en ced
ed ge
L4 68
L5 39
L5 73
L2 10
u7 926
u7 017
u8 211
u2 47
u2 350
ter ror
lo ser
ack s
ye llow
MAR QU
ass ure
CAR MEN
mat es
cor n
u87 62
mother fucker
swe ater
Mo ve
sign s
u63 93
shot s
tou ched
Po lice
personal ity
Cl aren
offic ial
incl ude
def ense
scar y
crow d
HU EY
prin ci
CARLO S
sne ak
occas ion
indust ry
CONSTAN ZE
Hild y
MARQU IS
B ra
C u
C li
C ur
D ri
K ir
L ady
S ur
S CARE
W ade
g ust
p it
r ist
at tract
be low
ot ic
m5 80
L3 51
m4 78
for ced
u1 639
u2 389
u5 054
AR INE
ro l
de lay
ent s
con tain
RO ME
MAN TAN
bu ry
DA DE
RI ZZO
u25 44
PA DEN
u81 31
BA CK
u48 21
RU TH
u27 62
vis iting
JER OME
cra ft
char ged
six teen
u56 91
sol ution
EV IL
IO US
u501 5
pas se
KATH ARINE
nes ses
Son ny
compli ment
Enter prise
Offic er
SCARE CROW
ROME O
F AR
F IE
F ire
J er
K id
K ong
K aren
K ev
M at
O SE
S end
a is
f us
l as
y ers
st ab
L1 99
u1 308
u1 313
u6 626
u8 666
u2 76
u5 489
ti al
ant e
sh ine
im age
He ad
art icle
RA ILLY
ci ence
ang ers
u30 34
u31 22
u61 63
NY AH
St and
u35 72
sho e
interest s
u23 60
mis takes
BU TT
u22 99
u39 61
comm unity
wall s
bas ic
MCC LANE
rob ber
Ell ie
gra ve
CU ST
Ken ned
brea thing
CAM ER
Other wise
TAR Y
Det ective
stea k
SECRE TARY
SHIN ZON
Claren ce
B el
F lor
G IDE
M CK
N ine
Y U
m pic
to l
ll a
he h
L3 79
L5 74
L2 76
u3 973
u1 679
u7 702
u6 704
am ps
EN ANT
ap ple
pro b
ED DY
ELL I
Ch urch
u15 30
PA S
u78 24
u40 32
ob ject
des ire
hundred s
u90 19
ather ine
GO D
ator s
sim ilar
HER O
appe ars
UT ENANT
Ca es
RON NIE
photo s
Time s
tech no
divor ced
bi ke
var ious
HOR SE
LIE UTENANT
tradition al
NEL S
Os wald
GIDE ON
B as
B TREE
C entr
H ill
I r
R HE
U se
c ats
n ation
n ical
t end
u 935
z o
z ero
in it
the at
me tal
ar ies
be n
u6 480
u2 657
u5 67
u5 933
with draw
sh y
am ond
LE O
think in
ure au
AL AN
own ed
RO CCO
who re
LA SS
LO K
sp here
KE E
di amond
u30 73
u25 64
IT OR
au nt
u28 48
u34 95
cent ury
app et
Bo ston
u39 98
hor ses
CRA BTREE
GI B
whe never
pack ing
plac ed
Tru e
polit ical
rout ine
mountain s
pus sy
Bri an
KU LOK
WOR F
bare ly
HOO PER
HERO INE
Caes ar
RHE YA
B ook
D arling
G INA
P OO
R am
T erry
o on
p ill
r ings
me th
st ers
be lt
as soci
L3 53
u7 65
u4 47
u4 52
u8 32
u8 675
u8 959
u8 985
go lf
just ice
tell in
ES CO
ous y
sto res
RAN DY
stand s
est ab
ru de
u71 77
L24 40
u20 45
sm ooth
app ing
pass ing
MOR PH
sw ing
WH AT
arr anged
wash ing
Pl us
chi at
PIL AR
hunt ing
Cal m
Tex as
rab bit
BEA VIS
Oly mpic
Kenned y
A THOS
I TER
M US
O VER
R ep
e rest
n aked
o x
in i
L1 52
L2 43
u4 98
u4 658
u4 222
u6 13
u6 455
u8 455
u8 914
u5 958
u5 302
ther ap
ur al
ind ivid
TH X
con cl
ble d
pre par
pre scription
af fect
DE BOR
wr ap
mon y
Re ed
u78 31
HE Y
u80 46
u17 88
Any one
aw n
u77 61
ship ment
u64 35
pa thetic
mp loy
lead ing
dra ft
tw ist
eng aged
window s
LIL I
action s
mir ror
RAM BO
Bea ut
bene fits
auto mat
fra me
shar p
Francis co
dess ert
Shang hai
SYLV IA
CUST OMER
DEBOR AH
E US
K AN
L ater
L aur
P PAS
S ave
T ur
Y up
d ating
e ff
v it
on a
be tray
and a
u3 303
u1 213
u6 889
u2 215
ER S
ri er
AR CHER
-- ?
fe ction
LE CTER
so re
de gre
ex plan
MA DISON
MAR GIE
jo king
fa iled
spe ll
Be th
PA PPAS
CAR RIE
u21 24
u78 00
u51 77
u65 22
L25 11
u48 31
Ne il
MY RA
Jack ie
u62 69
pa ign
ator y
u89 45
Mom my
produ ce
produ ction
iet y
add ition
Cl ub
base ment
creat ure
Fo llow
Off ice
celebr ate
Juli a
SCHAE FER
FUR IOUS
ESCO BAR
MORPH EUS
D ire
H UD
K no
W LER
c to
u 0
v amp
in spe
at tempt
me ters
se as
L5 57
u3 456
u1 456
u7 986
u8 885
u8 919
u8 802
u2 485
ho p
lo so
IL DA
RO D
per or
work ers
che er
ought a
cause d
tor s
MI T
u71 60
u87 32
VER BAL
u68 78
u17 30
u13 94
u12 45
u77 30
u74 92
Mar go
gen ius
CLE AR
fre qu
scre aming
PP Y
ille gal
od d
def end
vill age
MATH ILDA
Bus iness
moder n
SHU TTLE
ARTE MUS
Centr al
degre es
" ,
A si
A unt
C ou
D IS
J acqu
L INE
S un
W y
m all
m 95
in ner
an ni
le m
L1 81
L1 89
u3 956
u4 415
u4 758
u2 632
u2 586
ad just
AL IE
MAR LA
DY LE
SE CKER
dis covered
u30 20
CAR TMAN
L55 37
u87 61
WA ITRE
vis a
ins ult
u52 65
DER EK
u63 47
figure s
Se cre
suit case
Was n
prof it
u59 25
suggest ion
stick s
sold ier
rock s
hid den
particular ly
abo ard
includ ed
TEN DER
KOV ICH
HUN SECKER
SPEN GLER
WAITRE SS
C LO
D ian
G AND
G RUS
H ILL
H ELLER
M il
P romise
U H
o my
p ha
x x
z oo
on na
