{
  "version": "1.0",
  "truncation": null,
  "padding": null,
  "added_tokens": [
    {
      "id": 0,
      "content": "[PAD]",
      "single_word": false,
      "lstrip": false,
      "rstrip": false,
      "normalized": false,
      "special": true
    },
    {
      "id": 1,
      "content": "[UNK]",
      "single_word": false,
      "lstrip": false,
      "rstrip": false,
      "normalized": false,
      "special": true
    },
    {
      "id": 2,
      "content": "[CLS]",
      "single_word": false,
      "lstrip": false,
      "rstrip": false,
      "normalized": false,
      "special": true
    },
    {
      "id": 3,
      "content": "[SEP]",
      "single_word": false,
      "lstrip": false,
      "rstrip": false,
      "normalized": false,
      "special": true
    },
    {
      "id": 4,
      "content": "[MASK]",
      "single_word": false,
      "lstrip": false,
      "rstrip": false,
      "normalized": false,
      "special": true
    }
  ],
  "normalizer": null,
  "pre_tokenizer": {
    "type": "Whitespace"
  },
  "post_processor": null,
  "decoder": null,
  "model": {
    "type": "BPE",
    "dropout": null,
    "unk_token": "[UNK]",
    "continuing_subword_prefix": null,
    "end_of_word_suffix": null,
    "fuse_unk": false,
    "byte_fallback": false,
    "ignore_merges": false,
    "vocab": {
      "[PAD]": 0,
      "[UNK]": 1,
      "[CLS]": 2,
      "[SEP]": 3,
      "[MASK]": 4,
      "!": 5,
      "\"": 6,
      "#": 7,
      "$": 8,
      "%": 9,
      "&": 10,
      "'": 11,
      "(": 12,
      ")": 13,
      "*": 14,
      "+": 15,
      ",": 16,
      "-": 17,
      ".": 18,
      "/": 19,
      "0": 20,
      "1": 21,
      "2": 22,
      "3": 23,
      "4": 24,
      "5": 25,
      "6": 26,
      "7": 27,
      "8": 28,
      "9": 29,
      ":": 30,
      ";": 31,
      "<": 32,
      "=": 33,
      ">": 34,
      "?": 35,
      "@": 36,
      "A": 37,
      "B": 38,
      "C": 39,
      "D": 40,
      "E": 41,
      "F": 42,
      "G": 43,
      "H": 44,
      "I": 45,
      "J": 46,
      "K": 47,
      "L": 48,
      "M": 49,
      "N": 50,
      "O": 51,
      "P": 52,
      "Q": 53,
      "R": 54,
      "S": 55,
      "T": 56,
      "U": 57,
      "V": 58,
      "W": 59,
      "X": 60,
      "Y": 61,
      "Z": 62,
      "[": 63,
      "\\": 64,
      "]": 65,
      "^": 66,
      "_": 67,
      "`": 68,
      "a": 69,
      "b": 70,
      "c": 71,
      "d": 72,
      "e": 73,
      "f": 74,
      "g": 75,
      "h": 76,
      "i": 77,
      "j": 78,
      "k": 79,
      "l": 80,
      "m": 81,
      "n": 82,
      "o": 83,
      "p": 84,
      "q": 85,
      "r": 86,
      "s": 87,
      "t": 88,
      "u": 89,
      "v": 90,
      "w": 91,
      "x": 92,
      "y": 93,
      "z": 94,
      "{": 95,
      "|": 96,
      "}": 97,
      "~": 98,
      "": 99,
      "": 100,
      "": 101,
      "": 102,
      "": 103,
      "": 104,
      "": 105,
      "": 106,
      "": 107,
      "": 108,
      "£": 109,
      "¥": 110,
      "«": 111,
      "­": 112,
      "°": 113,
      "·": 114,
      "Á": 115,
      "Ä": 116,
      "Ç": 117,
      "È": 118,
      "É": 119,
      "Ñ": 120,
      "Ò": 121,
      "Ó": 122,
      "Ô": 123,
      "Õ": 124,
      "Ü": 125,
      "ß": 126,
      "à": 127,
      "á": 128,
      "â": 129,
      "ä": 130,
      "ç": 131,
      "è": 132,
      "é": 133,
      "ê": 134,
      "í": 135,
      "ï": 136,
      "ñ": 137,
      "ó": 138,
      "ù": 139,
      "ú": 140,
      "û": 141,
      "ü": 142,
      "–": 143,
      "—": 144,
      "‘": 145,
      "’": 146,
      "“": 147,
      "”": 148,
      "′": 149,
      "、": 150,
      "。": 151,
      "++": 152,
      "+++": 153,
      "$+++": 154,
      "+++$+++": 155,
      "ou": 156,
      "th": 157,
      "in": 158,
      "re": 159,
      "an": 160,
      "__": 161,
      "the": 162,
      "you": 163,
      "at": 164,
      "on": 165,
      "er": 166,
      "to": 167,
      "ll": 168,
      "me": 169,
      "he": 170,
      "ing": 171,
      "is": 172,
      "it": 173,
      "..": 174,
      "or": 175,
      "eou": 176,
      "__eou": 177,
      "__eou__": 178,
      "ve": 179,
      "st": 180,
      "se": 181,
      "ow": 182,
      "ar": 183,
      "le": 184,
      "be": 185,
      "en": 186,
      "hat": 187,
      "and": 188,
      "as": 189,
      "ay": 190,
      "of": 191,
      "m2": 192,
      "ke": 193,
      "ha": 194,
      "m1": 195,
      "ot": 196,
      "es": 197,
      "m5": 198,
      "L3": 199,
      "...": 200,
      "m3": 201,
      "ed": 202,
      "L4": 203,
      "L5": 204,
      "m4": 205,
      "al": 206,
      "L1": 207,
      "L2": 208,
      "id": 209,
      "gh": 210,
      "that": 211,
      "we": 212,
      "ld": 213,
      "li": 214,
      "You": 215,
      "oo": 216,
      "do": 217,
      "all": 218,
      "et": 219,
      "ut": 220,
      "for": 221,
      "ic": 222,
      "ome": 223,
      "u3": 224,
      "ac": 225,
      "out": 226,
      "u1": 227,
      "u7": 228,
      "AN": 229,
      "u4": 230,
      "ver": 231,
      "wi": 232,
      "ght": 233,
      "now": 234,
      "L6": 235,
      "u6": 236,
      "u8": 237,
      "u2": 238,
      "ER": 239,
      "u5": 240,
      "ri": 241,
      "have": 242,
      "AR": 243,
      "are": 244,
      "ad": 245,
      "nd": 246,
      "ro": 247,
      "ch": 248,
      "The": 249,
      "one": 250,
      "your": 251,
      "ab": 252,
      "ne": 253,
      "go": 254,
      "ould": 255,
      "What": 256,
      "my": 257,
      "know": 258,
      "--": 259,
      "We": 260,
      "ir": 261,
      "ust": 262,
      "thing": 263,
      "ti": 264,
      "this": 265,
      "ly": 266,
      "can": 267,
      "here": 268,
      "was": 269,
      "don": 270,
      "It": 271,
      "ant": 272,
      "60": 273,
      "with": 274,
      "95": 275,
      "40": 276,
      "sh": 277,
      "61": 278,
      "im": 279,
      "not": 280,
      "get": 281,
      "20": 282,
      "like": 283,
      "67": 284,
      "88": 285,
      "He": 286,
      "up": 287,
      "what": 288,
      "21": 289,
      "93": 290,
      "am": 291,
      "27": 292,
      "91": 293,
      "ter": 294,
      "97": 295,
      "ake": 296,
      "us": 297,
      "some": 298,
      "68": 299,
      "30": 300,
      "25": 301,
      "45": 302,
      "ion": 303,
      "fe": 304,
      "41": 305,
      "ink": 306,
      "98": 307,
      "ON": 308,
      "90": 309,
      "LE": 310,
      "35": 311,
      "65": 312,
      "ry": 313,
      "47": 314,
      "37": 315,
      "IN": 316,
      "ho": 317,
      "28": 318,
      "nt": 319,
      "co": 320,
      "so": 321,
      "ce": 322,
      "mo": 323,
      "48": 324,
      "ther": 325,
      "31": 326,
      "about": 327,
      "any": 328,
      "te": 329,
      "if": 330,
      "lo": 331,
      "pe": 332,
      "want": 333,
      "un": 334,
      "EL": 335,
      "think": 336,
      "ur": 337,
      "No": 338,
      "ood": 339,
      "38": 340,
      "de": 341,
      "our": 342,
      "just": 343,
      "no": 344,
      "ag": 345,
      "00": 346,
      "OR": 347,
      "got": 348,
      "EN": 349,
      "wor": 350,
      "ck": 351,
      "ill": 352,
      "62": 353,
      "IC": 354,
      "69": 355,
      "way": 356,
      "44": 357,
      "That": 358,
      "very": 359,
      "55": 360,
      "ook": 361,
      "there": 362,
      "did": 363,
      "ain": 364,
      "ple": 365,
      "his": 366,
      "11": 367,
      "ight": 368,
      "but": 369,
      "99": 370,
      "ind": 371,
      "right": 372,
      "ure": 373,
      "him": 374,
      "22": 375,
      "50": 376,
      "64": 377,
      "ally": 378,
      "IE": 379,
      "71": 380,
      "63": 381,
      "TH": 382,
      "see": 383,
      "78": 384,
      "po": 385,
      "they": 386,
      "bo": 387,
      "75": 388,
      "94": 389,
      "time": 390,
      "ack": 391,
      "80": 392,
      "23": 393,
      "And": 394,
      "tr": 395,
      "70": 396,
      "24": 397,
      "her": 398,
      "AL": 399,
      "pl": 400,
      "IL": 401,
      "ive": 402,
      "man": 403,
      "sa": 404,
      "33": 405,
      "ea": 406,
      "Yes": 407,
      "hy": 408,
      "use": 409,
      "art": 410,
      "51": 411,
      "going": 412,
      "ent": 413,
      "ap": 414,
      "el": 415,
      "66": 416,
      "rom": 417,
      "will": 418,
      "But": 419,
      "ex": 420,
      "day": 421,
      "How": 422,
      "ast": 423,
      "would": 424,
      "ard": 425,
      "Well": 426,
      "ST": 427,
      "01": 428,
      "Oh": 429,
      "CH": 430,
      "34": 431,
      "81": 432,
      "na": 433,
      "hen": 434,
      "92": 435,
      "ca": 436,
      "77": 437,
      "ank": 438,
      "ong": 439,
      "ul": 440,
      "ine": 441,
      "ig": 442,
      "RA": 443,
      "ate": 444,
      "com": 445,
      "con": 446,
      "ge": 447,
      "RE": 448,
      "85": 449,
      "ss": 450,
      "say": 451,
      "end": 452,
      "ice": 453,
      "ie": 454,
      "ation": 455,
      "own": 456,
      "good": 457,
      "too": 458,
      "74": 459,
      "RO": 460,
      "ound": 461,
      "ers": 462,
      "96": 463,
      "32": 464,
      "05": 465,
      "she": 466,
      "gu": 467,
      "qu": 468,
      "king": 469,
      "from": 470,
      "come": 471,
      "il": 472,
      "Do": 473,
      "pro": 474,
      "87": 475,
      "take": 476,
      "pp": 477,
      "look": 478,
      "MA": 479,
      "could": 480,
      "uck": 481,
      "CK": 482,
      "tell": 483,
      "ess": 484,
      "been": 485,
      "eah": 486,
      "them": 487,
      "uch": 488,
      "eve": 489,
      "who": 490,
      "ra": 491,
      "42": 492,
      "ye": 493,
      "36": 494,
      "off": 495,
      "72": 496,
      "ct": 497,
      "ble": 498,
      "back": 499,
      "08": 500,
      "ist": 501,
      "need": 502,
      "red": 503,
      "They": 504,
      "dy": 505,
      "JA": 506,
      "Th": 507,
      "were": 508,
      "IS": 509,
      "TT": 510,
      "pre": 511,
      "LA": 512,
      "um": 513,
      "39": 514,
      "how": 515,
      "ep": 516,
      "make": 517,
      "18": 518,
      "had": 519,
      "more": 520,
      "ase": 521,
      "ave": 522,
      "lf": 523,
      "58": 524,
      "wo": 525,
      "MAR": 526,
      "itt": 527,
      "So": 528,
      "46": 529,
      "Yeah": 530,
      "af": 531,
      "other": 532,
      "fo": 533,
      "mean": 534,
      "43": 535,
      "ES": 536,
      "tal": 537,
      "und": 538,
      "73": 539,
      "AM": 540,
      "15": 541,
      "when": 542,
      "really": 543,
      "29": 544,
      "Why": 545,
      "49": 546,
      "ick": 547,
      "ment": 548,
      "ous": 549,
      "JO": 550,
      "ough": 551,
      "10": 552,
      "didn": 553,
      "LO": 554,
      "should": 555,
      "ty": 556,
      "much": 557,
      "sp": 558,
      "76": 559,
      "over": 560,
      "26": 561,
      "call": 562,
      "per": 563,
      "She": 564,
      "MAN": 565,
      "DY": 566,
      "every": 567,
      "by": 568,
      "something": 569,
      "ILL": 570,
      "ace": 571,
      "ars": 572,
      "let": 573,
      "ta": 574,
      "This": 575,
      "act": 576,
      "ICK": 577,
      "work": 578,
      "Mr": 579,
      "If": 580,
      "ort": 581,
      "03": 582,
      "ople": 583,
      "new": 584,
      "down": 585,
      "Don": 586,
      "never": 587,
      "ber": 588,
      "GE": 589,
      "89": 590,
      "ide": 591,
      "ite": 592,
      "79": 593,
      "happ": 594,
      "che": 595,
      "ought": 596,
      "Thank": 597,
      "ning": 598,
      "ED": 599,
      "ittle": 600,
      "has": 601,
      "hel": 602,
      "RY": 603,
      "13": 604,
      "sto": 605,
      "ree": 606,
      "where": 607,
      "reat": 608,
      "ever": 609,
      "ked": 610,
      "does": 611,
      "ANN": 612,
      "mor": 613,
      "12": 614,
      "bet": 615,
      "little": 616,
      "people": 617,
      "There": 618,
      "jo": 619,
      "kay": 620,
      "pr": 621,
      "02": 622,
      "ity": 623,
      "AT": 624,
      "KE": 625,
      "ID": 626,
      "then": 627,
      "ass": 628,
      "CO": 629,
      "help": 630,
      "cause": 631,
      "give": 632,
      "Is": 633,
      "self": 634,
      "won": 635,
      "52": 636,
      "love": 637,
      "body": 638,
      "hi": 639,
      "82": 640,
      "read": 641,
      "aybe": 642,
      "SE": 643,
      "19": 644,
      "gr": 645,
      "bu": 646,
      "tion": 647,
      "orry": 648,
      "sure": 649,
      "ving": 650,
      "only": 651,
      "DE": 652,
      "br": 653,
      "fa": 654,
      "fore": 655,
      "oney": 656,
      "ci": 657,
      "17": 658,
      "04": 659,
      "able": 660,
      "BO": 661,
      "54": 662,
      "UR": 663,
      "Go": 664,
      "My": 665,
      "long": 666,
      "TER": 667,
      "two": 668,
      "53": 669,
      "14": 670,
      "ELL": 671,
      "ish": 672,
      "su": 673,
      "said": 674,
      "UL": 675,
      "age": 676,
      "16": 677,
      "wr": 678,
      "DA": 679,
      "83": 680,
      "em": 681,
      "put": 682,
      "Ch": 683,
      "cou": 684,
      "gon": 685,
      "la": 686,
      "Let": 687,
      "Where": 688,
      "irst": 689,
      "guy": 690,
      "night": 691,
      "gonna": 692,
      "RAN": 693,
      "07": 694,
      "min": 695,
      "di": 696,
      "fuck": 697,
      "well": 698,
      "57": 699,
      "feel": 700,
      "ARD": 701,
      "anything": 702,
      "kill": 703,
      "riend": 704,
      "rest": 705,
      "happen": 706,
      "spe": 707,
      "oom": 708,
      "RI": 709,
      "find": 710,
      "try": 711,
      "ang": 712,
      "Are": 713,
      "BE": 714,
      "why": 715,
      "ait": 716,
      "JACK": 717,
      "Can": 718,
      "stand": 719,
      "under": 720,
      "ak": 721,
      "ny": 722,
      "please": 723,
      "Just": 724,
      "m60": 725,
      "Be": 726,
      "84": 727,
      "86": 728,
      "06": 729,
      "ach": 730,
      "lot": 731,
      "OL": 732,
      "ways": 733,
      "FF": 734,
      "Not": 735,
      "iss": 736,
      "tor": 737,
      "than": 738,
      "Now": 739,
      "sed": 740,
      "care": 741,
      "cour": 742,
      "ance": 743,
      "part": 744,
      "der": 745,
      "talk": 746,
      "ting": 747,
      "again": 748,
      "</": 749,
      "bl": 750,
      "car": 751,
      "into": 752,
      "US": 753,
      "sir": 754,
      "Who": 755,
      "est": 756,
      "doing": 757,
      "Good": 758,
      "ru": 759,
      "56": 760,
      "name": 761,
      "after": 762,
      "09": 763,
      "thought": 764,
      "SH": 765,
      "friend": 766,
      "mon": 767,
      "ade": 768,
      "MI": 769,
      "kind": 770,
      "old": 771,
      "before": 772,
      "om": 773,
      "row": 774,
      "SON": 775,
      "sorry": 776,
      "room": 777,
      "better": 778,
      "must": 779,
      "ma": 780,
      "first": 781,
      "In": 782,
      "money": 783,
      "ue": 784,
      "ser": 785,
      "even": 786,
      "last": 787,
      "int": 788,
      "things": 789,
      "All": 790,
      "ool": 791,
      "CE": 792,
      "bus": 793,
      "Did": 794,
      "around": 795,
      "ich": 796,
      "ek": 797,
      "op": 798,
      "ose": 799,
      "still": 800,
      "mar": 801,
      "IM": 802,
      "lieve": 803,
      "always": 804,
      "ies": 805,
      "urn": 806,
      "life": 807,
      "ans": 808,
      "uh": 809,
      "ten": 810,
      "great": 811,
      "si": 812,
      "course": 813,
      "dis": 814,
      "ff": 815,
      "place": 816,
      "CA": 817,
      "home": 818,
      "UN": 819,
      "these": 820,
      "HA": 821,
      "les": 822,
      "clo": 823,
      "week": 824,
      "AND": 825,
      "gir": 826,
      "cl": 827,
      "keep": 828,
      "Re": 829,
      "ps": 830,
      "MR": 831,
      "years": 832,
      "Look": 833,
      "Then": 834,
      "ise": 835,
      "ater": 836,
      "atch": 837,
      "OM": 838,
      "NE": 839,
      "sup": 840,
      "believe": 841,
      "PE": 842,
      "L35": 843,
      "went": 844,
      "their": 845,
      "ary": 846,
      "told": 847,
      "play": 848,
      "start": 849,
      "mber": 850,
      "INE": 851,
      "u75": 852,
      "ton": 853,
      "Maybe": 854,
      "head": 855,
      "IR": 856,
      "u15": 857,
      "ouse": 858,
      "u30": 859,
      "ull": 860,
      "ried": 861,
      "job": 862,
      "When": 863,
      "ng": 864,
      "u11": 865,
      "Okay": 866,
      "most": 867,
      "run": 868,
      "OK": 869,
      "sit": 870,
      "ready": 871,
      "HAR": 872,
      "u25": 873,
      "minut": 874,
      "away": 875,
      "comp": 876,
      "big": 877,
      "hand": 878,
      "ful": 879,
      "Jo": 880,
      "kid": 881,
      "u55": 882,
      "m61": 883,
      "Hey": 884,
      "wait": 885,
      "bad": 886,
      "side": 887,
      "ms": 888,
      "ask": 889,
      "count": 890,
      "L61": 891,
      "port": 892,
      "mind": 893,
      "59": 894,
      "live": 895,
      "ner": 896,
      "bab": 897,
      "u45": 898,
      "because": 899,
      "God": 900,
      "PA": 901,
      "real": 902,
      "CAR": 903,
      "yes": 904,
      "u31": 905,
      "THER": 906,
      "u10": 907,
      "stu": 908,
      "u61": 909,
      "girl": 910,
      "L40": 911,
      "NY": 912,
      "member": 913,
      "L11": 914,
      "u21": 915,
      "iz": 916,
      "L50": 917,
      "L30": 918,
      "ft": 919,
      "proble": 920,
      "Some": 921,
      "BAR": 922,
      "JOH": 923,
      "fi": 924,
      "ICE": 925,
      "doesn": 926,
      "L8": 927,
      "u71": 928,
      "LY": 929,
      "IT": 930,
      "those": 931,
      "L48": 932,
      "ild": 933,
      "mer": 934,
      "IA": 935,
      "MO": 936,
      "PH": 937,
      "men": 938,
      "cre": 939,
      "show": 940,
      "FRAN": 941,
      "DO": 942,
      "shit": 943,
      "St": 944,
      "Your": 945,
      "tain": 946,
      "LEN": 947,
      "u78": 948,
      "ange": 949,
      "ign": 950,
      "UD": 951,
      "isn": 952,
      "else": 953,
      "isten": 954,
      "u37": 955,
      "meet": 956,
      "house": 957,
      "u50": 958,
      "mat": 959,
      "u70": 960,
      "made": 961,
      "hear": 962,
      "boy": 963,
      "nothing": 964,
      "JOHN": 965,
      "pay": 966,
      "understand": 967,
      "L31": 968,
      "ven": 969,
      "Sure": 970,
      "cle": 971,
      "fin": 972,
      "L55": 973,
      "rough": 974,
      "For": 975,
      "cor": 976,
      "BER": 977,
      "u51": 978,
      "might": 979,
      "pt": 980,
      "stay": 981,
      "IAN": 982,
      "ph": 983,
      "many": 984,
      "bit": 985,
      "ING": 986,
      "son": 987,
      "VE": 988,
      "ren": 989,
      "ually": 990,
      "nice": 991,
      "JE": 992,
      "hich": 993,
      "u35": 994,
      "three": 995,
      "BY": 996,
      "dr": 997,
      "turn": 998,
      "ame": 999,
      "leave": 1000,
      "u65": 1001,
      "HE": 1002,
      "res": 1003,
      "xt": 1004,
      "everything": 1005,
      "L45": 1006,
      "Here": 1007,
      "L65": 1008,
      "L25": 1009,
      "u40": 1010,
      "Hell": 1011,
      "L41": 1012,
      "Come": 1013,
      "Have": 1014,
      "L37": 1015,
      "wrong": 1016,
      "IG": 1017,
      "dam": 1018,
      "ee": 1019,
      "morning": 1020,
      "okay": 1021,
      "dif": 1022,
      "guess": 1023,
      "sho": 1024,
      "ket": 1025,
      "L58": 1026,
      "u81": 1027,
      "set": 1028,
      "u41": 1029,
      "u87": 1030,
      "bre": 1031,
      "LEY": 1032,
      "today": 1033,
      "NICK": 1034,
      "L23": 1035,
      "iness": 1036,
      "through": 1037,
      "done": 1038,
      "To": 1039,
      "ip": 1040,
      "enough": 1041,
      "THE": 1042,
      "hell": 1043,
      "L18": 1044,
      "next": 1045,
      "lease": 1046,
      "L12": 1047,
      "KA": 1048,
      "JOE": 1049,
      "Thanks": 1050,
      "ious": 1051,
      "L14": 1052,
      "air": 1053,
      "ence": 1054,
      "hard": 1055,
      "WILL": 1056,
      "ath": 1057,
      "LU": 1058,
      "PER": 1059,
      "bro": 1060,
      "yourself": 1061,
      "L20": 1062,
      "u80": 1063,
      "plan": 1064,
      "erson": 1065,
      "getting": 1066,
      "problem": 1067,
      "au": 1068,
      "times": 1069,
      "L51": 1070,
      "u60": 1071,
      "morrow": 1072,
      "wouldn": 1073,
      "another": 1074,
      "hour": 1075,
      "L44": 1076,
      "ell": 1077,
      "ob": 1078,
      "remember": 1079,
      "happened": 1080,
      "ARL": 1081,
      "cer": 1082,
      "fine": 1083,
      "rent": 1084,
      "Ex": 1085,
      "talking": 1086,
      "looking": 1087,
      "best": 1088,
      "idea": 1089,
      "L24": 1090,
      "Li": 1091,
      "thank": 1092,
      "wanted": 1093,
      "L60": 1094,
      "ction": 1095,
      "dead": 1096,
      "L21": 1097,
      "Sh": 1098,
      "VER": 1099,
      "ENT": 1100,
      "coming": 1101,
      "less": 1102,
      "u68": 1103,
      "cond": 1104,
      "L28": 1105,
      "left": 1106,
      "came": 1107,
      "WA": 1108,
      "used": 1109,
      "SA": 1110,
      "ctor": 1111,
      "inte": 1112,
      "light": 1113,
      "Please": 1114,
      "Of": 1115,
      "wal": 1116,
      "few": 1117,
      "Al": 1118,
      "late": 1119,
      "heard": 1120,
      "world": 1121,
      "business": 1122,
      "sch": 1123,
      "sur": 1124,
      "ol": 1125,
      "hile": 1126,
      "BA": 1127,
      "L34": 1128,
      "L38": 1129,
      "days": 1130,
      "fam": 1131,
      "maybe": 1132,
      "ily": 1133,
      "u48": 1134,
      "point": 1135,
      "L33": 1136,
      "suppo": 1137,
      "RU": 1138,
      "av": 1139,
      "quest": 1140,
      "dre": 1141,
      "pret": 1142,
      "L10": 1143,
      "Would": 1144,
      "ORGE": 1145,
      "interest": 1146,
      "same": 1147,
      "u38": 1148,
      "u20": 1149,
      "sm": 1150,
      "pic": 1151,
      "u85": 1152,
      "ud": 1153,
      "being": 1154,
      "ated": 1155,
      "tomorrow": 1156,
      "Hi": 1157,
      "Hello": 1158,
      "person": 1159,
      "TE": 1160,
      "ark": 1161,
      "lad": 1162,
      "ear": 1163,
      "L63": 1164,
      "eat": 1165,
      "buy": 1166,
      "five": 1167,
      "month": 1168,
      "u17": 1169,
      "haven": 1170,
      "father": 1171,
      "VIN": 1172,
      "cr": 1173,
      "vie": 1174,
      "may": 1175,
      "u18": 1176,
      "fun": 1177,
      "JIM": 1178,
      "ince": 1179,
      "Fr": 1180,
      "wasn": 1181,
      "mother": 1182,
      "AD": 1183,
      "while": 1184,
      "u44": 1185,
      "someone": 1186,
      "sha": 1187,
      "saw": 1188,
      "check": 1189,
      "matter": 1190,
      "BOB": 1191,
      "L27": 1192,
      "miss": 1193,
      "L17": 1194,
      "ash": 1195,
      "Any": 1196,
      "hn": 1197,
      "STE": 1198,
      "ions": 1199,
      "SAM": 1200,
      "GEORGE": 1201,
      "dri": 1202,
      "diffe": 1203,
      "du": 1204,
      "des": 1205,
      "MRS": 1206,
      "ounds": 1207,
      "Ne": 1208,
      "L43": 1209,
      "year": 1210,
      "ses": 1211,
      "str": 1212,
      "L57": 1213,
      "school": 1214,
      "its": 1215,
      "word": 1216,
      "inter": 1217,
      "raid": 1218,
      "lic": 1219,
      "tonight": 1220,
      "LER": 1221,
      "GRA": 1222,
      "L52": 1223,
      "CLA": 1224,
      "ith": 1225,
      "u13": 1226,
      "seen": 1227,
      "form": 1228,
      "u27": 1229,
      "John": 1230,
      "Will": 1231,
      "L47": 1232,
      "L64": 1233,
      "u84": 1234,
      "move": 1235,
      "u67": 1236,
      "gotta": 1237,
      "trying": 1238,
      "L56": 1239,
      "An": 1240,
      "ster": 1241,
      "TA": 1242,
      "TON": 1243,
      "ason": 1244,
      "book": 1245,
      "med": 1246,
      "L42": 1247,
      "BEN": 1248,
      "hope": 1249,
      "stop": 1250,
      "L29": 1251,
      "u12": 1252,
      "doll": 1253,
      "ult": 1254,
      "low": 1255,
      "Get": 1256,
      "vis": 1257,
      "FRANK": 1258,
      "u73": 1259,
      "drink": 1260,
      "?!": 1261,
      "leep": 1262,
      "Every": 1263,
      "u23": 1264,
      "u28": 1265,
      "led": 1266,
      "u57": 1267,
      "L15": 1268,
      "WAL": 1269,
      "whole": 1270,
      "afraid": 1271,
      "LIN": 1272,
      "aw": 1273,
      "u58": 1274,
      "cut": 1275,
      "pretty": 1276,
      ".\"": 1277,
      "u34": 1278,
      "fucking": 1279,
      "yet": 1280,
      "already": 1281,
      "damn": 1282,
      "LAR": 1283,
      "bed": 1284,
      "hur": 1285,
      "watch": 1286,
      "UG": 1287,
      "L53": 1288,
      "deal": 1289,
      "sent": 1290,
      "On": 1291,
      "knew": 1292,
      "cent": 1293,
      "u24": 1294,
      "ALE": 1295,
      "ORD": 1296,
      "gether": 1297,
      "sen": 1298,
      "u14": 1299,
      "....": 1300,
      "company": 1301,
      "Right": 1302,
      "also": 1303,
      "found": 1304,
      "ago": 1305,
      "mm": 1306,
      "wonder": 1307,
      "tow": 1308,
      "L54": 1309,
      "together": 1310,
      "L36": 1311,
      "u43": 1312,
      "til": 1313,
      "u53": 1314,
      "ICHA": 1315,
      "guys": 1316,
      "TOR": 1317,
      "myself": 1318,
      "bring": 1319,
      "ical": 1320,
      "wife": 1321,
      "CY": 1322,
      "called": 1323,
      "num": 1324,
      "open": 1325,
      "!!": 1326,
      "As": 1327,
      "hot": 1328,
      "war": 1329,
      "u77": 1330,
      "JEFF": 1331,
      "EY": 1332,
      "undred": 1333,
      "bor": 1334,
      "hed": 1335,
      "which": 1336,
      "change": 1337,
      "eas": 1338,
      "worry": 1339,
      "u69": 1340,
      "ins": 1341,
      "such": 1342,
      "SS": 1343,
      "anc": 1344,
      "u74": 1345,
      "MART": 1346,
      "m289": 1347,
      "NOR": 1348,
      "ail": 1349,
      "BILL": 1350,
      "JER": 1351,
      "cha": 1352,
      "sing": 1353,
      "u32": 1354,
      "HARRY": 1355,
      "TCH": 1356,
      "din": 1357,
      "child": 1358,
      "hundred": 1359,
      "ouble": 1360,
      "L62": 1361,
      "working": 1362,
      "ETT": 1363,
      "MY": 1364,
      "u72": 1365,
      "ible": 1366,
      "soon": 1367,
      "pen": 1368,
      "cont": 1369,
      "cra": 1370,
      "minutes": 1371,
      "OO": 1372,
      "die": 1373,
      "MARY": 1374,
      "ident": 1375,
      "bably": 1376,
      "far": 1377,
      "gg": 1378,
      "L9": 1379,
      "Ro": 1380,
      "PETER": 1381,
      "PAUL": 1382,
      "aut": 1383,
      "ect": 1384,
      "ub": 1385,
      "VO": 1386,
      "phone": 1387,
      "...?": 1388,
      "land": 1389,
      "Tell": 1390,
      "four": 1391,
      "att": 1392,
      "zy": 1393,
      "LES": 1394,
      "ister": 1395,
      "app": 1396,
      "huh": 1397,
      "L32": 1398,
      "friends": 1399,
      "VI": 1400,
      "pect": 1401,
      "De": 1402,
      "Because": 1403,
      "One": 1404,
      "ste": 1405,
      "ya": 1406,
      "MAX": 1407,
      "May": 1408,
      "u49": 1409,
      "char": 1410,
      "cial": 1411,
      "case": 1412,
      "llow": 1413,
      "says": 1414,
      "couldn": 1415,
      "DR": 1416,
      "ship": 1417,
      "swe": 1418,
      "six": 1419,
      "ding": 1420,
      "cuse": 1421,
      "ian": 1422,
      "fr": 1423,
      "ations": 1424,
      "beaut": 1425,
      "QU": 1426,
      "ia": 1427,
      "minute": 1428,
      "full": 1429,
      "high": 1430,
      "listen": 1431,
      "m295": 1432,
      "Could": 1433,
      "Chr": 1434,
      "L22": 1435,
      "fic": 1436,
      "par": 1437,
      "ves": 1438,
      "CON": 1439,
      "poss": 1440,
      "woman": 1441,
      "u52": 1442,
      "NA": 1443,
      "u88": 1444,
      "TTY": 1445,
      "EM": 1446,
      "quite": 1447,
      "break": 1448,
      "u33": 1449,
      "OLD": 1450,
      "MICHA": 1451,
      "MICHAEL": 1452,
      "Ma": 1453,
      "RICK": 1454,
      "L19": 1455,
      "ling": 1456,
      "stuff": 1457,
      "L46": 1458,
      "import": 1459,
      "without": 1460,
      "killed": 1461,
      "vor": 1462,
      "each": 1463,
      "u64": 1464,
      "lear": 1465,
      "u47": 1466,
      "mis": 1467,
      "Like": 1468,
      "AH": 1469,
      "hold": 1470,
      "lie": 1471,
      "stre": 1472,
      "Mo": 1473,
      "tri": 1474,
      "L39": 1475,
      "sleep": 1476,
      "300": 1477,
      "LI": 1478,
      "line": 1479,
      "BU": 1480,
      "happy": 1481,
      "second": 1482,
      "took": 1483,
      "cho": 1484,
      "iful": 1485,
      "sc": 1486,
      "REY": 1487,
      "Really": 1488,
      "different": 1489,
      "Mar": 1490,
      "fect": 1491,
      "actly": 1492,
      "DAV": 1493,
      "once": 1494,
      "half": 1495,
      "serv": 1496,
      "key": 1497,
      "io": 1498,
      "thinking": 1499,
      "KIR": 1500,
      "ved": 1501,
      "office": 1502,
      "dec": 1503,
      "dollars": 1504,
      "town": 1505,
      "ALEX": 1506,
      "MON": 1507,
      "m299": 1508,
      "ings": 1509,
      "bar": 1510,
      "family": 1511,
      "Me": 1512,
      "prom": 1513,
      "saying": 1514,
      "VOICE": 1515,
      "DAVID": 1516,
      "Br": 1517,
      "ANNIE": 1518,
      "sy": 1519,
      "ither": 1520,
      "sign": 1521,
      "Uh": 1522,
      "gen": 1523,
      "since": 1524,
      "until": 1525,
      "number": 1526,
      "DU": 1527,
      "ger": 1528,
      "Dad": 1529,
      "LOR": 1530,
      "Un": 1531,
      "cus": 1532,
      "door": 1533,
      "u90": 1534,
      "wenty": 1535,
      "ball": 1536,
      "walk": 1537,
      "See": 1538,
      "NI": 1539,
      "cess": 1540,
      "top": 1541,
      "aren": 1542,
      "HAM": 1543,
      "face": 1544,
      "u46": 1545,
      "Or": 1546,
      "SY": 1547,
      "PO": 1548,
      "true": 1549,
      "food": 1550,
      "probably": 1551,
      "important": 1552,
      "pri": 1553,
      "gre": 1554,
      "ken": 1555,
      "ating": 1556,
      "L59": 1557,
      "980": 1558,
      "looks": 1559,
      "yeah": 1560,
      "als": 1561,
      "GG": 1562,
      "m105": 1563,
      "At": 1564,
      "lor": 1565,
      "reason": 1566,
      "fast": 1567,
      "410": 1568,
      "u840": 1569,
      "LEON": 1570,
      "Sorry": 1571,
      "gone": 1572,
      "later": 1573,
      "law": 1574,
      "anna": 1575,
      "game": 1576,
      "cur": 1577,
      "luck": 1578,
      "DER": 1579,
      "Eng": 1580,
      "having": 1581,
      "posit": 1582,
      "wants": 1583,
      "DIE": 1584,
      "JERRY": 1585,
      "unch": 1586,
      "ousand": 1587,
      "RAY": 1588,
      "GA": 1589,
      "lice": 1590,
      "SU": 1591,
      "ather": 1592,
      "pare": 1593,
      "m238": 1594,
      "475": 1595,
      "u76": 1596,
      "u63": 1597,
      "fer": 1598,
      "cked": 1599,
      "u56": 1600,
      "u26": 1601,
      "200": 1602,
      "wel": 1603,
      "beautiful": 1604,
      "BUD": 1605,
      "crazy": 1606,
      "ROB": 1607,
      "baby": 1608,
      "Bo": 1609,
      "card": 1610,
      "sk": 1611,
      "ELA": 1612,
      "SAL": 1613,
      "u54": 1614,
      "u16": 1615,
      "Nothing": 1616,
      "ird": 1617,
      "405": 1618,
      "free": 1619,
      "hours": 1620,
      "ery": 1621,
      "HO": 1622,
      "m513": 1623,
      "thousand": 1624,
      "supposed": 1625,
      "m82": 1626,
      "send": 1627,
      "Miss": 1628,
      "GO": 1629,
      "New": 1630,
      "ire": 1631,
      "DON": 1632,
      "Jack": 1633,
      "JUL": 1634,
      "sol": 1635,
      "cept": 1636,
      "m90": 1637,
      "fig": 1638,
      "gun": 1639,
      "alone": 1640,
      "L66": 1641,
      "u62": 1642,
      "Jes": 1643,
      "TOM": 1644,
      "makes": 1645,
      "FER": 1646,
      "cy": 1647,
      "u79": 1648,
      "LOU": 1649,
      "press": 1650,
      "brother": 1651,
      "Take": 1652,
      "inv": 1653,
      "wish": 1654,
      "Christ": 1655,
      "hurt": 1656,
      "KI": 1657,
      "easy": 1658,
      "ZA": 1659,
      "ture": 1660,
      "L26": 1661,
      "both": 1662,
      "SID": 1663,
      "married": 1664,
      "ual": 1665,
      "ICA": 1666,
      "band": 1667,
      "tic": 1668,
      "vers": 1669,
      "order": 1670,
      "lost": 1671,
      "ze": 1672,
      "L16": 1673,
      "m428": 1674,
      "class": 1675,
      "trouble": 1676,
      "fl": 1677,
      "ned": 1678,
      "RIS": 1679,
      "hu": 1680,
      "Ve": 1681,
      "555": 1682,
      "ump": 1683,
      "Amer": 1684,
      "971": 1685,
      "674": 1686,
      "u22": 1687,
      "Americ": 1688,
      "L7": 1689,
      "602": 1690,
      "612": 1691,
      "log": 1692,
      "u82": 1693,
      "208": 1694,
      "ont": 1695,
      "ANDY": 1696,
      "GU": 1697,
      "lish": 1698,
      "m435": 1699,
      "Dr": 1700,
      "water": 1701,
      "anyone": 1702,
      "ANE": 1703,
      "COL": 1704,
      "coll": 1705,
      "comes": 1706,
      "ESS": 1707,
      "ah": 1708,
      "m380": 1709,
      "357": 1710,
      "young": 1711,
      "681": 1712,
      "MC": 1713,
      "knows": 1714,
      "Mrs": 1715,
      "611": 1716,
      "JEN": 1717,
      "figure": 1718,
      "expect": 1719,
      "m100": 1720,
      "ize": 1721,
      "CHARL": 1722,
      "question": 1723,
      "CHARLIE": 1724,
      "m522": 1725,
      "Wait": 1726,
      "fif": 1727,
      "though": 1728,
      "VA": 1729,
      "FA": 1730,
      "mit": 1731,
      "ness": 1732,
      "joy": 1733,
      "TO": 1734,
      "TED": 1735,
      "irty": 1736,
      "938": 1737,
      "Listen": 1738,
      "speak": 1739,
      "BRO": 1740,
      "pa": 1741,
      "ward": 1742,
      "least": 1743,
      "KIRK": 1744,
      "BOBBY": 1745,
      "hit": 1746,
      "m243": 1747,
      "m342": 1748,
      "aper": 1749,
      "DAN": 1750,
      "ition": 1751,
      "477": 1752,
      "218": 1753,
      "kids": 1754,
      "shot": 1755,
      "party": 1756,
      "country": 1757,
      "mome": 1758,
      "m528": 1759,
      "table": 1760,
      "taking": 1761,
      "possible": 1762,
      "Com": 1763,
      "gets": 1764,
      "958": 1765,
      "455": 1766,
      "m537": 1767,
      "az": 1768,
      "ane": 1769,
      "----": 1770,
      "000": 1771,
      "met": 1772,
      "Does": 1773,
      "moment": 1774,
      "Excuse": 1775,
      "pie": 1776,
      "983": 1777,
      "Jesus": 1778,
      "BERT": 1779,
      "twenty": 1780,
      "story": 1781,
      "tru": 1782,
      "ular": 1783,
      "JAKE": 1784,
      "u36": 1785,
      "pped": 1786,
      "GER": 1787,
      "ele": 1788,
      "ator": 1789,
      "god": 1790,
      "m149": 1791,
      "m77": 1792,
      "Ab": 1793,
      "heart": 1794,
      "chance": 1795,
      "THY": 1796,
      "MOTHER": 1797,
      "Gr": 1798,
      "MIKE": 1799,
      "dinner": 1800,
      "Co": 1801,
      "m16": 1802,
      "exper": 1803,
      "Ar": 1804,
      "ones": 1805,
      "CLE": 1806,
      "pick": 1807,
      "484": 1808,
      "exactly": 1809,
      "view": 1810,
      "fight": 1811,
      "955": 1812,
      "KAR": 1813,
      "m532": 1814,
      "u39": 1815,
      "u42": 1816,
      "plain": 1817,
      "057": 1818,
      "ates": 1819,
      "Har": 1820,
      "beg": 1821,
      "m467": 1822,
      "wear": 1823,
      "couple": 1824,
      "making": 1825,
      "asked": 1826,
      "THAN": 1827,
      "train": 1828,
      "serious": 1829,
      "ons": 1830,
      "hate": 1831,
      "m72": 1832,
      "u89": 1833,
      "258": 1834,
      "close": 1835,
      "ments": 1836,
      "TRA": 1837,
      "683": 1838,
      "m35": 1839,
      "351": 1840,
      "hite": 1841,
      "649": 1842,
      "GAN": 1843,
      "283": 1844,
      "m246": 1845,
      "Je": 1846,
      "gave": 1847,
      "noon": 1848,
      "anyway": 1849,
      "ANDER": 1850,
      "ower": 1851,
      "EDDIE": 1852,
      "mine": 1853,
      "KAT": 1854,
      "gs": 1855,
      "916": 1856,
      "YO": 1857,
      "reg": 1858,
      "fee": 1859,
      "wanna": 1860,
      "mp": 1861,
      "m150": 1862,
      "doctor": 1863,
      "WALTER": 1864,
      "SUS": 1865,
      "fact": 1866,
      "mi": 1867,
      "nts": 1868,
      "WAY": 1869,
      "DOR": 1870,
      "215": 1871,
      "dress": 1872,
      "LOUIS": 1873,
      "m139": 1874,
      "ides": 1875,
      "thanks": 1876,
      "859": 1877,
      "English": 1878,
      "273": 1879,
      "actually": 1880,
      "sounds": 1881,
      "tive": 1882,
      "784": 1883,
      "449": 1884,
      "u9": 1885,
      "Le": 1886,
      "dro": 1887,
      "hor": 1888,
      "MER": 1889,
      "m368": 1890,
      "YD": 1891,
      "ork": 1892,
      "606": 1893,
      "687": 1894,
      "REN": 1895,
      "cu": 1896,
      "LEE": 1897,
      "outh": 1898,
      "cri": 1899,
      "test": 1900,
      "210": 1901,
      "u19": 1902,
      "tainly": 1903,
      "906": 1904,
      "cons": 1905,
      "With": 1906,
      "m588": 1907,
      "677": 1908,
      "SAR": 1909,
      "apart": 1910,
      "JACKIE": 1911,
      "ters": 1912,
      "wind": 1913,
      "m292": 1914,
      "terri": 1915,
      "m127": 1916,
      "201": 1917,
      "m38": 1918,
      "vi": 1919,
      "Lo": 1920,
      "KER": 1921,
      "sick": 1922,
      "wer": 1923,
      "m152": 1924,
      "883": 1925,
      "picture": 1926,
      "GEN": 1927,
      "mb": 1928,
      "mill": 1929,
      "goes": 1930,
      "somebody": 1931,
      "712": 1932,
      "633": 1933,
      "ts": 1934,
      "mus": 1935,
      "L497": 1936,
      "CLAR": 1937,
      "forget": 1938,
      "918": 1939,
      "785": 1940,
      "LOW": 1941,
      "675": 1942,
      "951": 1943,
      "small": 1944,
      "Ho": 1945,
      "sim": 1946,
      "conf": 1947,
      "BUR": 1948,
      "ELLY": 1949,
      "blood": 1950,
      "ute": 1951,
      "glad": 1952,
      "favor": 1953,
      "ALL": 1954,
      "Se": 1955,
      "fre": 1956,
      "police": 1957,
      "follow": 1958,
      "CRA": 1959,
      "803": 1960,
      "enjoy": 1961,
      "m423": 1962,
      "L13": 1963,
      "sub": 1964,
      "seems": 1965,
      "NIE": 1966,
      "ANNA": 1967,
      "Which": 1968,
      "ANNE": 1969,
      "m373": 1970,
      "m175": 1971,
      "m333": 1972,
      "eight": 1973,
      "216": 1974,
      "281": 1975,
      "special": 1976,
      "RIST": 1977,
      "ries": 1978,
      "713": 1979,
      "means": 1980,
      "tried": 1981,
      "along": 1982,
      "m293": 1983,
      "hair": 1984,
      "407": 1985,
      "L360": 1986,
      "934": 1987,
      "m208": 1988,
      "pain": 1989,
      "Tom": 1990,
      "m296": 1991,
      "L500": 1992,
      "214": 1993,
      "gest": 1994,
      "afternoon": 1995,
      "m103": 1996,
      "anymore": 1997,
      "m244": 1998,
      "almost": 1999,
      "416": 2000,
      "eyes": 2001,
      "912": 2002,
      "STAN": 2003,
      "278": 2004,
      "305": 2005,
      "teen": 2006,
      "L237": 2007,
      "481": 2008,
      "waiting": 2009,
      "lin": 2010,
      "885": 2011,
      "m234": 2012,
      "ond": 2013,
      "ina": 2014,
      "account": 2015,
      "Great": 2016,
      "m230": 2017,
      "349": 2018,
      "m475": 2019,
      "trust": 2020,
      "den": 2021,
      "ev": 2022,
      "iting": 2023,
      "682": 2024,
      "dream": 2025,
      "ICH": 2026,
      "880": 2027,
      "317": 2028,
      "STER": 2029,
      "started": 2030,
      "WARD": 2031,
      "sense": 2032,
      "ote": 2033,
      "213": 2034,
      "months": 2035,
      "Car": 2036,
      "bag": 2037,
      "MARTIN": 2038,
      "Mom": 2039,
      "Pe": 2040,
      "409": 2041,
      "551": 2042,
      "ring": 2043,
      "GI": 2044,
      "u780": 2045,
      "RED": 2046,
      "979": 2047,
      "413": 2048,
      "BRI": 2049,
      "950": 2050,
      "959": 2051,
      "623": 2052,
      "646": 2053,
      "CARTER": 2054,
      "clean": 2055,
      "m595": 2056,
      "m42": 2057,
      "cop": 2058,
      "ount": 2059,
      "404": 2060,
      "910": 2061,
      "usband": 2062,
      "Ah": 2063,
      "m78": 2064,
      "615": 2065,
      "u29": 2066,
      "204": 2067,
      "experi": 2068,
      "ZZ": 2069,
      "m569": 2070,
      "L637": 2071,
      "443": 2072,
      "telling": 2073,
      "either": 2074,
      "m55": 2075,
      "MEL": 2076,
      "ished": 2077,
      "696": 2078,
      "642": 2079,
      "IRE": 2080,
      "NO": 2081,
      "husband": 2082,
      "loo": 2083,
      "m88": 2084,
      "ited": 2085,
      "ital": 2086,
      "enti": 2087,
      "ween": 2088,
      "m178": 2089,
      "det": 2090,
      "rel": 2091,
      "HER": 2092,
      "ces": 2093,
      "city": 2094,
      "m229": 2095,
      "Mary": 2096,
      "gent": 2097,
      "movie": 2098,
      "SCH": 2099,
      "pass": 2100,
      "m202": 2101,
      "m217": 2102,
      "m487": 2103,
      "worth": 2104,
      "BRE": 2105,
      "till": 2106,
      "Af": 2107,
      "ME": 2108,
      "Ok": 2109,
      "amp": 2110,
      "Frank": 2111,
      "tou": 2112,
      "inform": 2113,
      "truth": 2114,
      "tory": 2115,
      "NEY": 2116,
      "ced": 2117,
      "937": 2118,
      "mess": 2119,
      "m269": 2120,
      "m119": 2121,
      "114": 2122,
      "fuckin": 2123,
      "ef": 2124,
      "vo": 2125,
      "m312": 2126,
      "yours": 2127,
      "952": 2128,
      "277": 2129,
      "970": 2130,
      "cord": 2131,
      "Two": 2132,
      "fire": 2133,
      "pull": 2134,
      "thin": 2135,
      "ross": 2136,
      "211": 2137,
      "986": 2138,
      "Fine": 2139,
      "GAL": 2140,
      "m533": 2141,
      "931": 2142,
      "909": 2143,
      "519": 2144,
      "PAR": 2145,
      "YN": 2146,
      "atur": 2147,
      "bye": 2148,
      "eral": 2149,
      "m140": 2150,
      "bank": 2151,
      "451": 2152,
      "470": 2153,
      "L49": 2154,
      "comple": 2155,
      "272": 2156,
      "686": 2157,
      "cell": 2158,
      "news": 2159,
      "ELLIE": 2160,
      "L638": 2161,
      "MAC": 2162,
      "603": 2163,
      "355": 2164,
      "657": 2165,
      "BETTY": 2166,
      "children": 2167,
      "His": 2168,
      "Fuck": 2169,
      "ROSE": 2170,
      "everyone": 2171,
      "shoot": 2172,
      "Bill": 2173,
      "Cap": 2174,
      "YA": 2175,
      "plo": 2176,
      "605": 2177,
      "offer": 2178,
      "956": 2179,
      "seem": 2180,
      "produ": 2181,
      "meeting": 2182,
      "clear": 2183,
      "offee": 2184,
      "936": 2185,
      "price": 2186,
      "u86": 2187,
      "cli": 2188,
      "FORD": 2189,
      "stra": 2190,
      "sort": 2191,
      "omen": 2192,
      "485": 2193,
      "EV": 2194,
      "ject": 2195,
      "312": 2196,
      "Per": 2197,
      "L600": 2198,
      "fall": 2199,
      "power": 2200,
      "scare": 2201,
      "Bl": 2202,
      "UCK": 2203,
      "rid": 2204,
      "480": 2205,
      "310": 2206,
      "m348": 2207,
      "314": 2208,
      "suppose": 2209,
      "haps": 2210,
      "271": 2211,
      "914": 2212,
      "HELEN": 2213,
      "m118": 2214,
      "sell": 2215,
      "919": 2216,
      "interested": 2217,
      "729": 2218,
      "weeks": 2219,
      "VEN": 2220,
      "inside": 2221,
      "ities": 2222,
      "884": 2223,
      "COR": 2224,
      "Jim": 2225,
      "900": 2226,
      "m329": 2227,
      "502": 2228,
      "sal": 2229,
      "L267": 2230,
      "drive": 2231,
      "MAL": 2232,
      "tle": 2233,
      "308": 2234,
      "255": 2235,
      "652": 2236,
      "perfect": 2237,
      "against": 2238,
      "mach": 2239,
      "living": 2240,
      "476": 2241,
      "cold": 2242,
      "iet": 2243,
      "614": 2244,
      "243": 2245,
      "NICKY": 2246,
      "ticket": 2247,
      "u83": 2248,
      "adv": 2249,
      "930": 2250,
      "lose": 2251,
      "hind": 2252,
      "m163": 2253,
      "L337": 2254,
      "Give": 2255,
      "ier": 2256,
      "build": 2257,
      "Char": 2258,
      "front": 2259,
      "comput": 2260,
      "915": 2261,
      "between": 2262,
      "Ge": 2263,
      "902": 2264,
      "319": 2265,
      "anger": 2266,
      "Sir": 2267,
      "m598": 2268,
      "ahead": 2269,
      "write": 2270,
      "Mi": 2271,
      "cred": 2272,
      "ught": 2273,
      "m516": 2274,
      "717": 2275,
      "ient": 2276,
      "present": 2277,
      "street": 2278,
      "Very": 2279,
      "270": 2280,
      "359": 2281,
      "666": 2282,
      "After": 2283,
      "chang": 2284,
      "ield": 2285,
      "near": 2286,
      "aking": 2287,
      "lt": 2288,
      "m106": 2289,
      "280": 2290,
      "552": 2291,
      "932": 2292,
      "m266": 2293,
      "251": 2294,
      "ung": 2295,
      "m70": 2296,
      "L501": 2297,
      "486": 2298,
      "622": 2299,
      "L311": 2300,
      "feeling": 2301,
      "ADAM": 2302,
      "Man": 2303,
      "PR": 2304,
      "lock": 2305,
      "pris": 2306,
      "resp": 2307,
      "cost": 2308,
      "624": 2309,
      "Po": 2310,
      "m104": 2311,
      "957": 2312,
      "618": 2313,
      "Our": 2314,
      "Tho": 2315,
      "sport": 2316,
      "JEFFREY": 2317,
      "sound": 2318,
      "259": 2319,
      "tired": 2320,
      "died": 2321,
      "BILLY": 2322,
      "Pr": 2323,
      "SO": 2324,
      "sex": 2325,
      "m278": 2326,
      "KY": 2327,
      "m570": 2328,
      "415": 2329,
      "507": 2330,
      "pping": 2331,
      "learn": 2332,
      "HAN": 2333,
      "m141": 2334,
      "rence": 2335,
      "BB": 2336,
      "m589": 2337,
      "m336": 2338,
      "935": 2339,
      "DORO": 2340,
      "JAM": 2341,
      "pat": 2342,
      "m564": 2343,
      "457": 2344,
      "By": 2345,
      "Bob": 2346,
      "road": 2347,
      "m62": 2348,
      "456": 2349,
      "evening": 2350,
      "fair": 2351,
      "win": 2352,
      "itch": 2353,
      "252": 2354,
      "DANN": 2355,
      "secre": 2356,
      "557": 2357,
      "249": 2358,
      "DANNY": 2359,
      "L100": 2360,
      "inese": 2361,
      "mas": 2362,
      "uni": 2363,
      "629": 2364,
      "m285": 2365,
      "600": 2366,
      "350": 2367,
      "anybody": 2368,
      "val": 2369,
      "answer": 2370,
      "cal": 2371,
      "coffee": 2372,
      "ERI": 2373,
      "217": 2374,
      "sel": 2375,
      "behind": 2376,
      "408": 2377,
      "agree": 2378,
      "m355": 2379,
      "Ed": 2380,
      "fill": 2381,
      "ley": 2382,
      "m575": 2383,
      "m469": 2384,
      "L151": 2385,
      "m565": 2386,
      "617": 2387,
      "EVE": 2388,
      "PIN": 2389,
      "mur": 2390,
      "por": 2391,
      "lead": 2392,
      "m376": 2393,
      "985": 2394,
      "spend": 2395,
      "arm": 2396,
      "m112": 2397,
      "usually": 2398,
      "aving": 2399,
      "smo": 2400,
      "m519": 2401,
      "m507": 2402,
      "funny": 2403,
      "ative": 2404,
      "m291": 2405,
      "m586": 2406,
      "music": 2407,
      "asure": 2408,
      "m225": 2409,
      "death": 2410,
      "colle": 2411,
      "ude": 2412,
      "442": 2413,
      "rect": 2414,
      "m593": 2415,
      "m347": 2416,
      "ility": 2417,
      "running": 2418,
      "HAROLD": 2419,
      "856": 2420,
      "clock": 2421,
      "m427": 2422,
      "285": 2423,
      "Chinese": 2424,
      "cap": 2425,
      "m251": 2426,
      "DEN": 2427,
      "mid": 2428,
      "ord": 2429,
      "parents": 2430,
      "MUR": 2431,
      "Ste": 2432,
      "Tr": 2433,
      "nor": 2434,
      "205": 2435,
      "311": 2436,
      "505": 2437,
      "m464": 2438,
      "m463": 2439,
      "comm": 2440,
      "m370": 2441,
      "sug": 2442,
      "RAND": 2443,
      "m27": 2444,
      "250": 2445,
      "650": 2446,
      "226": 2447,
      "everybody": 2448,
      "suit": 2449,
      "LLO": 2450,
      "black": 2451,
      "hes": 2452,
      "889": 2453,
      "information": 2454,
      "main": 2455,
      "m94": 2456,
      "iday": 2457,
      "953": 2458,
      "calling": 2459,
      "million": 2460,
      "lar": 2461,
      "NAN": 2462,
      "thirty": 2463,
      "seven": 2464,
      "upid": 2465,
      "654": 2466,
      "flo": 2467,
      "487": 2468,
      "m276": 2469,
      "m204": 2470,
      "315": 2471,
      "777": 2472,
      "mad": 2473,
      "thes": 2474,
      "819": 2475,
      "PAT": 2476,
      "gi": 2477,
      "m36": 2478,
      "m231": 2479,
      "m314": 2480,
      "outside": 2481,
      "ages": 2482,
      "Geor": 2483,
      "MILL": 2484,
      "289": 2485,
      "IO": 2486,
      "ks": 2487,
      "ler": 2488,
      "m518": 2489,
      "604": 2490,
      "PHY": 2491,
      "fu": 2492,
      "sister": 2493,
      "report": 2494,
      "307": 2495,
      "CHRIST": 2496,
      "m126": 2497,
      "ics": 2498,
      "379": 2499,
      "hands": 2500,
      "rece": 2501,
      "allow": 2502,
      "ats": 2503,
      "u601": 2504,
      "381": 2505,
      "m275": 2506,
      "m102": 2507,
      "ider": 2508,
      "KAREN": 2509,
      "honey": 2510,
      "m334": 2511,
      "u501": 2512,
      "ched": 2513,
      "bull": 2514,
      "aught": 2515,
      "DICK": 2516,
      "m20": 2517,
      "m29": 2518,
      "dad": 2519,
      "L470": 2520,
      "m594": 2521,
      "m503": 2522,
      "658": 2523,
      "record": 2524,
      "m298": 2525,
      "net": 2526,
      "m431": 2527,
      "m109": 2528,
      "Captain": 2529,
      "fil": 2530,
      "m216": 2531,
      "dog": 2532,
      "901": 2533,
      "TTE": 2534,
      "hotel": 2535,
      "cident": 2536,
      "m444": 2537,
      "rather": 2538,
      "SCO": 2539,
      "m369": 2540,
      "222": 2541,
      "shouldn": 2542,
      "York": 2543,
      "date": 2544,
      "m0": 2545,
      "m19": 2546,
      "past": 2547,
      "whe": 2548,
      "trans": 2549,
      "m381": 2550,
      "takes": 2551,
      "m162": 2552,
      "'.": 2553,
      "women": 2554,
      "m327": 2555,
      "u66": 2556,
      "u574": 2557,
      "412": 2558,
      "lay": 2559,
      "safe": 2560,
      "RIP": 2561,
      "JULIE": 2562,
      "straight": 2563,
      "Never": 2564,
      "ices": 2565,
      "632": 2566,
      "Ju": 2567,
      "m491": 2568,
      "appe": 2569,
      "089": 2570,
      "Bar": 2571,
      "GUS": 2572,
      "m539": 2573,
      "224": 2574,
      "m601": 2575,
      "apartment": 2576,
      "CRO": 2577,
      "mag": 2578,
      "m462": 2579,
      "353": 2580,
      "m605": 2581,
      "scre": 2582,
      "m239": 2583,
      "m161": 2584,
      "m332": 2585,
      "881": 2586,
      "378": 2587,
      "ELI": 2588,
      "ls": 2589,
      "975": 2590,
      "302": 2591,
      "m287": 2592,
      "m120": 2593,
      "L480": 2594,
      "601": 2595,
      "needs": 2596,
      "taken": 2597,
      "ib": 2598,
      "m124": 2599,
      "917": 2600,
      "452": 2601,
      "626": 2602,
      "itting": 2603,
      "busy": 2604,
      "Got": 2605,
      "hang": 2606,
      "catch": 2607,
      "paper": 2608,
      "len": 2609,
      "m403": 2610,
      "service": 2611,
      "touch": 2612,
      "MB": 2613,
      "vent": 2614,
      "m371": 2615,
      "NORMAN": 2616,
      "m451": 2617,
      "irth": 2618,
      "450": 2619,
      "584": 2620,
      "Pet": 2621,
      "m89": 2622,
      "sive": 2623,
      "m450": 2624,
      "933": 2625,
      "303": 2626,
      "begin": 2627,
      "FRANC": 2628,
      "fort": 2629,
      "wonderful": 2630,
      "URA": 2631,
      "PIC": 2632,
      "ug": 2633,
      "stupid": 2634,
      "411": 2635,
      "112": 2636,
      "himself": 2637,
      "GRE": 2638,
      "L140": 2639,
      "dest": 2640,
      "preci": 2641,
      "MILES": 2642,
      "Was": 2643,
      "inst": 2644,
      "m101": 2645,
      "position": 2646,
      "daught": 2647,
      "pas": 2648,
      "656": 2649,
      "m402": 2650,
      "SUSAN": 2651,
      "Ben": 2652,
      "Gu": 2653,
      "Say": 2654,
      "389": 2655,
      "751": 2656,
      "DOROTHY": 2657,
      "m236": 2658,
      "678": 2659,
      "904": 2660,
      "THEO": 2661,
      "First": 2662,
      "KO": 2663,
      "987": 2664,
      "ial": 2665,
      "m240": 2666,
      "m499": 2667,
      "alive": 2668,
      "L250": 2669,
      "911": 2670,
      "489": 2671,
      "dear": 2672,
      "RACH": 2673,
      "About": 2674,
      "BON": 2675,
      "m220": 2676,
      "m479": 2677,
      "yester": 2678,
      "piece": 2679,
      "yesterday": 2680,
      "bill": 2681,
      "m267": 2682,
      "m131": 2683,
      "ney": 2684,
      "372": 2685,
      "INA": 2686,
      "worked": 2687,
      "prof": 2688,
      "Act": 2689,
      "888": 2690,
      "306": 2691,
      "board": 2692,
      "758": 2693,
      "happens": 2694,
      "256": 2695,
      "994": 2696,
      "Mic": 2697,
      "m405": 2698,
      "brought": 2699,
      "interesting": 2700,
      "often": 2701,
      "284": 2702,
      "STAR": 2703,
      "ONG": 2704,
      "651": 2705,
      "stem": 2706,
      "m10": 2707,
      "m330": 2708,
      "questions": 2709,
      "mission": 2710,
      "computer": 2711,
      "MURPHY": 2712,
      "m324": 2713,
      "976": 2714,
      "301": 2715,
      "gram": 2716,
      "MOR": 2717,
      "m283": 2718,
      "m199": 2719,
      "L451": 2720,
      "onest": 2721,
      "209": 2722,
      "313": 2723,
      "879": 2724,
      "clothes": 2725,
      "complete": 2726,
      "George": 2727,
      "fac": 2728,
      "ature": 2729,
      "m194": 2730,
      "shut": 2731,
      "913": 2732,
      "LAND": 2733,
      "ROY": 2734,
      "WO": 2735,
      "m309": 2736,
      "m465": 2737,
      "680": 2738,
      "CLAIRE": 2739,
      "Bet": 2740,
      "gl": 2741,
      "L400": 2742,
      "sometimes": 2743,
      "253": 2744,
      "ush": 2745,
      "454": 2746,
      "479": 2747,
      "BETH": 2748,
      "BI": 2749,
      "LIS": 2750,
      "PEN": 2751,
      "PRE": 2752,
      "dra": 2753,
      "619": 2754,
      "375": 2755,
      "ational": 2756,
      "solute": 2757,
      "fifty": 2758,
      "TV": 2759,
      "Only": 2760,
      "tw": 2761,
      "m193": 2762,
      "L370": 2763,
      "676": 2764,
      "257": 2765,
      "942": 2766,
      "human": 2767,
      "secret": 2768,
      "UT": 2769,
      "m45": 2770,
      "672": 2771,
      "trave": 2772,
      "ately": 2773,
      "trip": 2774,
      "m169": 2775,
      "contro": 2776,
      "m92": 2777,
      "oh": 2778,
      "610": 2779,
      "972": 2780,
      "INO": 2781,
      "Her": 2782,
      "je": 2783,
      "asking": 2784,
      "m512": 2785,
      "m344": 2786,
      "ants": 2787,
      "655": 2788,
      "115": 2789,
      "bur": 2790,
      "igh": 2791,
      "m552": 2792,
      "m341": 2793,
      "quick": 2794,
      "girls": 2795,
      "m322": 2796,
      "m495": 2797,
      "alth": 2798,
      "ided": 2799,
      "287": 2800,
      "384": 2801,
      "ext": 2802,
      "HEN": 2803,
      "jor": 2804,
      "ris": 2805,
      "459": 2806,
      "OLLY": 2807,
      "rad": 2808,
      "608": 2809,
      "short": 2810,
      "ROBIN": 2811,
      "ITH": 2812,
      "m550": 2813,
      "u59": 2814,
      "GRAHAM": 2815,
      "684": 2816,
      "nobody": 2817,
      "343": 2818,
      "ili": 2819,
      "m168": 2820,
      "616": 2821,
      "419": 2822,
      "157": 2823,
      "m558": 2824,
      "L150": 2825,
      "352": 2826,
      "fix": 2827,
      "NIC": 2828,
      "cool": 2829,
      "m374": 2830,
      "358": 2831,
      "387": 2832,
      "store": 2833,
      "list": 2834,
      "ret": 2835,
      "m235": 2836,
      "m167": 2837,
      "m57": 2838,
      "These": 2839,
      "954": 2840,
      "710": 2841,
      "943": 2842,
      "aste": 2843,
      "m610": 2844,
      "personal": 2845,
      "m151": 2846,
      "L101": 2847,
      "356": 2848,
      "HAW": 2849,
      "ile": 2850,
      "ted": 2851,
      "m181": 2852,
      "974": 2853,
      "808": 2854,
      "329": 2855,
      "grand": 2856,
      "hh": 2857,
      "692": 2858,
      "LLOYD": 2859,
      "UM": 2860,
      "lan": 2861,
      "white": 2862,
      "m250": 2863,
      "275": 2864,
      "752": 2865,
      "boys": 2866,
      "daughter": 2867,
      "PP": 2868,
      "m536": 2869,
      "ARLO": 2870,
      "pur": 2871,
      "m224": 2872,
      "m273": 2873,
      "582": 2874,
      "scared": 2875,
      "IAM": 2876,
      "ix": 2877,
      "leg": 2878,
      "m247": 2879,
      "286": 2880,
      "671": 2881,
      "472": 2882,
      "cover": 2883,
      "spect": 2884,
      "Con": 2885,
      "m418": 2886,
      "add": 2887,
      "DOC": 2888,
      "Sm": 2889,
      "Wow": 2890,
      "arch": 2891,
      "m416": 2892,
      "Huh": 2893,
      "birth": 2894,
      "m308": 2895,
      "207": 2896,
      "ELAINE": 2897,
      "respon": 2898,
      "Pro": 2899,
      "m59": 2900,
      "471": 2901,
      "expen": 2902,
      "Nice": 2903,
      "m525": 2904,
      "206": 2905,
      "999": 2906,
      "tract": 2907,
      "AU": 2908,
      "aur": 2909,
      "sou": 2910,
      "m560": 2911,
      "202": 2912,
      "417": 2913,
      "tra": 2914,
      "Joe": 2915,
      "weekend": 2916,
      "FRED": 2917,
      "Mon": 2918,
      "lying": 2919,
      "984": 2920,
      "WILLIAM": 2921,
      "GGIE": 2922,
      "m6": 2923,
      "enter": 2924,
      "shall": 2925,
      "words": 2926,
      "MARTY": 2927,
      "leaving": 2928,
      "400": 2929,
      "Wal": 2930,
      "WEN": 2931,
      "u170": 2932,
      "973": 2933,
      "982": 2934,
      "PICARD": 2935,
      "Che": 2936,
      "483": 2937,
      "Something": 2938,
      "charge": 2939,
      "Qu": 2940,
      "return": 2941,
      "m281": 2942,
      "m214": 2943,
      "m198": 2944,
      "699": 2945,
      "playing": 2946,
      "welcome": 2947,
      "fle": 2948,
      "m201": 2949,
      "m17": 2950,
      "m302": 2951,
      "m482": 2952,
      "whatever": 2953,
      "m511": 2954,
      "786": 2955,
      "study": 2956,
      "JOHNNY": 2957,
      "RACHEL": 2958,
      "m25": 2959,
      "m44": 2960,
      "801": 2961,
      "m615": 2962,
      "Alright": 2963,
      "Actually": 2964,
      "spital": 2965,
      "lives": 2966,
      "fully": 2967,
      "system": 2968,
      "DIAN": 2969,
      "Sam": 2970,
      "m68": 2971,
      "670": 2972,
      "goddamn": 2973,
      "m335": 2974,
      "L401": 2975,
      "m408": 2976,
      "L281": 2977,
      "m249": 2978,
      "m257": 2979,
      "m545": 2980,
      "401": 2981,
      "m71": 2982,
      "org": 2983,
      "vest": 2984,
      "978": 2985,
      "somewhere": 2986,
      "981": 2987,
      "639": 2988,
      "solutely": 2989,
      "OLE": 2990,
      "m397": 2991,
      "alright": 2992,
      "Nobody": 2993,
      "BOY": 2994,
      "ION": 2995,
      "Pa": 2996,
      "fit": 2997,
      "forgot": 2998,
      "478": 2999,
      "482": 3000,
      "lunch": 3001,
      "wed": 3002,
      "m591": 3003,
      "L601": 3004,
      "ager": 3005,
      "Ke": 3006,
      "bot": 3007,
      "pend": 3008,
      "m363": 3009,
      "known": 3010,
      "ELLE": 3011,
      "386": 3012,
      "Nor": 3013,
      "ctive": 3014,
      "pack": 3015,
      "607": 3016,
      "992": 3017,
      "save": 3018,
      "exc": 3019,
      "early": 3020,
      "mouth": 3021,
      "ically": 3022,
      "414": 3023,
      "223": 3024,
      "lucky": 3025,
      "SARAH": 3026,
      "uring": 3027,
      "sum": 3028,
      "m337": 3029,
      "510": 3030,
      "explain": 3031,
      "concer": 3032,
      "throw": 3033,
      "m54": 3034,
      "box": 3035,
      "suggest": 3036,
      "VY": 3037,
      "oud": 3038,
      "m129": 3039,
      "458": 3040,
      "239": 3041,
      "929": 3042,
      "OOD": 3043,
      "418": 3044,
      "ony": 3045,
      "m501": 3046,
      "m48": 3047,
      "m306": 3048,
      "234": 3049,
      "aster": 3050,
      "lady": 3051,
      "promise": 3052,
      "TY": 3053,
      "sw": 3054,
      "vac": 3055,
      "m18": 3056,
      "m455": 3057,
      "203": 3058,
      "380": 3059,
      "boss": 3060,
      "CRE": 3061,
      "ETHAN": 3062,
      "Par": 3063,
      "appreci": 3064,
      "American": 3065,
      "FRANCES": 3066,
      "cash": 3067,
      "beat": 3068,
      "907": 3069,
      "qual": 3070,
      "BRU": 3071,
      "m93": 3072,
      "m494": 3073,
      "appoint": 3074,
      "MICK": 3075,
      "NES": 3076,
      "bought": 3077,
      "m207": 3078,
      "274": 3079,
      "OMER": 3080,
      "m79": 3081,
      "wall": 3082,
      "m190": 3083,
      "318": 3084,
      "deli": 3085,
      "810": 3086,
      "works": 3087,
      "LUKE": 3088,
      "UDE": 3089,
      "experience": 3090,
      "sl": 3091,
      "m527": 3092,
      "L555": 3093,
      "L270": 3094,
      "carry": 3095,
      "floor": 3096,
      "MICKEY": 3097,
      "Ca": 3098,
      "VIC": 3099,
      "eng": 3100,
      "team": 3101,
      "TTLE": 3102,
      "kidding": 3103,
      "stead": 3104,
      "window": 3105,
      "VAN": 3106,
      "dle": 3107,
      "m404": 3108,
      "673": 3109,
      "515": 3110,
      "NIFER": 3111,
      "JENNIFER": 3112,
      "Dan": 3113,
      "nie": 3114,
      "m128": 3115,
      "m471": 3116,
      "377": 3117,
      "stick": 3118,
      "THO": 3119,
      "problems": 3120,
      "Everything": 3121,
      "selves": 3122,
      "Stop": 3123,
      "m144": 3124,
      "354": 3125,
      "659": 3126,
      "foot": 3127,
      "ZAR": 3128,
      "star": 3129,
      "m304": 3130,
      "679": 3131,
      "BARRY": 3132,
      "DRA": 3133,
      "OFF": 3134,
      "oper": 3135,
      "996": 3136,
      "MARGO": 3137,
      "paid": 3138,
      "Pres": 3139,
      "m411": 3140,
      "714": 3141,
      "exam": 3142,
      "BRUCE": 3143,
      "L355": 3144,
      "L588": 3145,
      "m424": 3146,
      "accident": 3147,
      "ches": 3148,
      "sweet": 3149,
      "Lu": 3150,
      "LIL": 3151,
      "gy": 3152,
      "state": 3153,
      "hall": 3154,
      "279": 3155,
      "117": 3156,
      "u4525": 3157,
      "DANTE": 3158,
      "Dav": 3159,
      "RID": 3160,
      "dent": 3161,
      "field": 3162,
      "m83": 3163,
      "squ": 3164,
      "m203": 3165,
      "m279": 3166,
      "THA": 3167,
      "SALLY": 3168,
      "m389": 3169,
      "GALVIN": 3170,
      "danger": 3171,
      "276": 3172,
      "685": 3173,
      "tele": 3174,
      "754": 3175,
      "rain": 3176,
      "seeing": 3177,
      "treat": 3178,
      "m111": 3179,
      "304": 3180,
      "382": 3181,
      "Anything": 3182,
      "m84": 3183,
      "m453": 3184,
      "STON": 3185,
      "326": 3186,
      "ucks": 3187,
      "AG": 3188,
      "m200": 3189,
      "m320": 3190,
      "m390": 3191,
      "mom": 3192,
      "vir": 3193,
      "m288": 3194,
      "715": 3195,
      "weren": 3196,
      "gn": 3197,
      "ride": 3198,
      "m496": 3199,
      "JIMMY": 3200,
      "m21": 3201,
      "L255": 3202,
      "653": 3203,
      "694": 3204,
      "interview": 3205,
      "People": 3206,
      "m265": 3207,
      "depart": 3208,
      "Cl": 3209,
      "vin": 3210,
      "m561": 3211,
      "looked": 3212,
      "WH": 3213,
      "sun": 3214,
      "m530": 3215,
      "m576": 3216,
      "111": 3217,
      "airs": 3218,
      "473": 3219,
      "een": 3220,
      "fool": 3221,
      "u677": 3222,
      "pract": 3223,
      "MITCH": 3224,
      "905": 3225,
      "books": 3226,
      "m117": 3227,
      "L550": 3228,
      "prefer": 3229,
      "Isn": 3230,
      "become": 3231,
      "ense": 3232,
      "m133": 3233,
      "m508": 3234,
      "613": 3235,
      "others": 3236,
      "COLE": 3237,
      "ground": 3238,
      "handle": 3239,
      "FATHER": 3240,
      "NER": 3241,
      "m252": 3242,
      "m197": 3243,
      "m326": 3244,
      "m303": 3245,
      "609": 3246,
      "hospital": 3247,
      "grow": 3248,
      "CLAY": 3249,
      "JON": 3250,
      "fish": 3251,
      "m32": 3252,
      "ANIE": 3253,
      "236": 3254,
      "pres": 3255,
      "GRACE": 3256,
      "ime": 3257,
      "SIDNEY": 3258,
      "SPO": 3259,
      "m358": 3260,
      "212": 3261,
      "086": 3262,
      "finish": 3263,
      "JOR": 3264,
      "m132": 3265,
      "action": 3266,
      "ama": 3267,
      "color": 3268,
      "RYN": 3269,
      "DAD": 3270,
      "RON": 3271,
      "m568": 3272,
      "fell": 3273,
      "371": 3274,
      "782": 3275,
      "plane": 3276,
      "ances": 3277,
      "m256": 3278,
      "m573": 3279,
      "accept": 3280,
      "ards": 3281,
      "787": 3282,
      "m606": 3283,
      "terrible": 3284,
      "m87": 3285,
      "ues": 3286,
      "m228": 3287,
      "m353": 3288,
      "join": 3289,
      "KATE": 3290,
      "consider": 3291,
      "m171": 3292,
      "WADE": 3293,
      "choice": 3294,
      "control": 3295,
      "VICTOR": 3296,
      "m205": 3297,
      "m445": 3298,
      "333": 3299,
      "CHE": 3300,
      "psy": 3301,
      "vel": 3302,
      "m107": 3303,
      "804": 3304,
      "926": 3305,
      "ZE": 3306,
      "m316": 3307,
      "pop": 3308,
      "KEN": 3309,
      "WE": 3310,
      "m50": 3311,
      "CAROL": 3312,
      "FE": 3313,
      "eye": 3314,
      "m37": 3315,
      "474": 3316,
      "MOND": 3317,
      "JUN": 3318,
      "m480": 3319,
      "903": 3320,
      "COLM": 3321,
      "MALCOLM": 3322,
      "BLA": 3323,
      "base": 3324,
      "tom": 3325,
      "m154": 3326,
      "316": 3327,
      "CHRIS": 3328,
      "PHIL": 3329,
      ">.": 3330,
      "bath": 3331,
      "cup": 3332,
      "m66": 3333,
      "m74": 3334,
      "sme": 3335,
      "m23": 3336,
      "L340": 3337,
      "989": 3338,
      "ALICE": 3339,
      "Doctor": 3340,
      "bitch": 3341,
      "L85": 3342,
      "dark": 3343,
      "m174": 3344,
      "m452": 3345,
      "ford": 3346,
      "chick": 3347,
      "ORE": 3348,
      "334": 3349,
      "ZO": 3350,
      "umb": 3351,
      ".'": 3352,
      "Cer": 3353,
      "WIL": 3354,
      "mend": 3355,
      "m599": 3356,
      "using": 3357,
      "lly": 3358,
      "m34": 3359,
      "242": 3360,
      "gas": 3361,
      "imag": 3362,
      "Didn": 3363,
      "strong": 3364,
      "President": 3365,
      "flight": 3366,
      "vate": 3367,
      "step": 3368,
      "453": 3369,
      "506": 3370,
      "letter": 3371,
      "Am": 3372,
      "XON": 3373,
      "m318": 3374,
      "ARON": 3375,
      "ublic": 3376,
      "Those": 3377,
      "ACE": 3378,
      "WEL": 3379,
      "cot": 3380,
      "cook": 3381,
      "m123": 3382,
      "m585": 3383,
      "m46": 3384,
      "m433": 3385,
      "mention": 3386,
      "responsi": 3387,
      "VIS": 3388,
      "lit": 3389,
      "lent": 3390,
      "887": 3391,
      "pleasure": 3392,
      "ALVY": 3393,
      "brain": 3394,
      "u1169": 3395,
      "Even": 3396,
      "ai": 3397,
      "honest": 3398,
      "m352": 3399,
      "ENCE": 3400,
      "cially": 3401,
      "977": 3402,
      "giving": 3403,
      "Dam": 3404,
      "dist": 3405,
      "m581": 3406,
      "219": 3407,
      "yer": 3408,
      "946": 3409,
      "332": 3410,
      "cam": 3411,
      "uan": 3412,
      "yle": 3413,
      "m165": 3414,
      "m541": 3415,
      "m446": 3416,
      "m449": 3417,
      "From": 3418,
      "WAN": 3419,
      "m22": 3420,
      "m546": 3421,
      "m502": 3422,
      "183": 3423,
      "Make": 3424,
      "cas": 3425,
      "m514": 3426,
      "636": 3427,
      "Sometimes": 3428,
      "certainly": 3429,
      "gar": 3430,
      "m113": 3431,
      "REW": 3432,
      "program": 3433,
      "VAL": 3434,
      "health": 3435,
      "m24": 3436,
      "idence": 3437,
      "385": 3438,
      "MASON": 3439,
      "mail": 3440,
      "MOSS": 3441,
      "Shut": 3442,
      "Harry": 3443,
      "CAL": 3444,
      "m505": 3445,
      "blow": 3446,
      "TRE": 3447,
      "fut": 3448,
      "sn": 3449,
      "--------": 3450,
      "ped": 3451,
      "arr": 3452,
      "ene": 3453,
      "m399": 3454,
      "acher": 3455,
      "lau": 3456,
      "Paul": 3457,
      "FO": 3458,
      "m391": 3459,
      "L125": 3460,
      "bother": 3461,
      "BURN": 3462,
      "David": 3463,
      "m215": 3464,
      "m195": 3465,
      "939": 3466,
      "643": 3467,
      "offic": 3468,
      "market": 3469,
      "decided": 3470,
      "simple": 3471,
      "ran": 3472,
      "m436": 3473,
      "m407": 3474,
      "roll": 3475,
      "m603": 3476,
      "appreciate": 3477,
      "m160": 3478,
      "m145": 3479,
      "882": 3480,
      "444": 3481,
      "719": 3482,
      "054": 3483,
      "059": 3484,
      "GRAN": 3485,
      "m159": 3486,
      "m540": 3487,
      "u1475": 3488,
      "MARIE": 3489,
      "WOMAN": 3490,
      "En": 3491,
      "JANE": 3492,
      "689": 3493,
      "634": 3494,
      "super": 3495,
      "diffic": 3496,
      "m172": 3497,
      "m367": 3498,
      "m498": 3499,
      "imme": 3500,
      "EDWARD": 3501,
      "DOUG": 3502,
      "m221": 3503,
      "m294": 3504,
      "m300": 3505,
      "L540": 3506,
      "m429": 3507,
      "oose": 3508,
      "finished": 3509,
      "m577": 3510,
      "discus": 3511,
      "YOU": 3512,
      "Keep": 3513,
      "BAT": 3514,
      "ens": 3515,
      "L475": 3516,
      "m437": 3517,
      "u3681": 3518,
      "370": 3519,
      "373": 3520,
      "thinks": 3521,
      "110": 3522,
      "CHUCK": 3523,
      "deser": 3524,
      "zz": 3525,
      "m458": 3526,
      "cannot": 3527,
      "282": 3528,
      "ief": 3529,
      "China": 3530,
      "ming": 3531,
      "uation": 3532,
      "m170": 3533,
      "shop": 3534,
      "plac": 3535,
      "186": 3536,
      "watching": 3537,
      "u4331": 3538,
      "mir": 3539,
      "ption": 3540,
      "m286": 3541,
      "u255": 3542,
      "worried": 3543,
      "012": 3544,
      "ATHER": 3545,
      "Bes": 3546,
      "hon": 3547,
      "m69": 3548,
      "nine": 3549,
      "m164": 3550,
      "m53": 3551,
      "908": 3552,
      "005": 3553,
      "DEAN": 3554,
      "m130": 3555,
      "m554": 3556,
      "m556": 3557,
      "m415": 3558,
      "felt": 3559,
      "517": 3560,
      "ists": 3561,
      "finite": 3562,
      "FLE": 3563,
      "une": 3564,
      "respect": 3565,
      "worse": 3566,
      "446": 3567,
      "loved": 3568,
      "246": 3569,
      "426": 3570,
      "turned": 3571,
      "Bu": 3572,
      "pho": 3573,
      "goin": 3574,
      "886": 3575,
      "credit": 3576,
      "WELL": 3577,
      "ni": 3578,
      "ines": 3579,
      "058": 3580,
      "152": 3581,
      "visit": 3582,
      "SKI": 3583,
      "ised": 3584,
      "depend": 3585,
      "746": 3586,
      "prove": 3587,
      "VADA": 3588,
      "CT": 3589,
      "stairs": 3590,
      "m442": 3591,
      "poor": 3592,
      "JACO": 3593,
      "RIPLEY": 3594,
      "DAR": 3595,
      "seat": 3596,
      "arri": 3597,
      "516": 3598,
      "Perhaps": 3599,
      "future": 3600,
      "m75": 3601,
      "L521": 3602,
      "ali": 3603,
      "given": 3604,
      "Besides": 3605,
      "FEL": 3606,
      "Gen": 3607,
      "oc": 3608,
      "erry": 3609,
      "m188": 3610,
      "m544": 3611,
      "ISON": 3612,
      "PI": 3613,
      "bas": 3614,
      "m212": 3615,
      "232": 3616,
      "MARTHA": 3617,
      "building": 3618,
      "dance": 3619,
      "m284": 3620,
      "L450": 3621,
      "L478": 3622,
      "309": 3623,
      "116": 3624,
      "707": 3625,
      "184": 3626,
      "KATH": 3627,
      "difference": 3628,
      "JACOB": 3629,
      "SEN": 3630,
      "m166": 3631,
      "m58": 3632,
      "m517": 3633,
      "m345": 3634,
      "233": 3635,
      "342": 3636,
      "longer": 3637,
      "birthday": 3638,
      "JUD": 3639,
      "KELLY": 3640,
      "Mc": 3641,
      "invest": 3642,
      "m419": 3643,
      "ILLE": 3644,
      "Shit": 3645,
      "Smith": 3646,
      "flow": 3647,
      "m65": 3648,
      "m223": 3649,
      "Three": 3650,
      "expensive": 3651,
      "ress": 3652,
      "m434": 3653,
      "704": 3654,
      "type": 3655,
      "invol": 3656,
      "YLE": 3657,
      "nes": 3658,
      "unt": 3659,
      "arling": 3660,
      "uts": 3661,
      "unk": 3662,
      "229": 3663,
      "LAS": 3664,
      "GRANT": 3665,
      "DEL": 3666,
      "search": 3667,
      "m147": 3668,
      "m313": 3669,
      "L295": 3670,
      "383": 3671,
      "restaur": 3672,
      "m233": 3673,
      "m301": 3674,
      "post": 3675,
      "pose": 3676,
      "017": 3677,
      "103": 3678,
      "fault": 3679,
      "GRADY": 3680,
      "VIK": 3681,
      "MELANIE": 3682,
      "public": 3683,
      "m472": 3684,
      "ROBERT": 3685,
      "rat": 3686,
      "m506": 3687,
      "ONY": 3688,
      "ENID": 3689,
      "TTES": 3690,
      "u1094": 3691,
      "machine": 3692,
      "m41": 3693,
      "L627": 3694,
      "815": 3695,
      "?\"": 3696,
      "ax": 3697,
      "m219": 3698,
      "m121": 3699,
      "m192": 3700,
      "m553": 3701,
      "m443": 3702,
      "weather": 3703,
      "ANG": 3704,
      "dered": 3705,
      "drop": 3706,
      "SCOTT": 3707,
      "HENRY": 3708,
      "Sounds": 3709,
      "cat": 3710,
      "spo": 3711,
      "m136": 3712,
      "TTER": 3713,
      "emplo": 3714,
      "smart": 3715,
      "pet": 3716,
      "station": 3717,
      "L278": 3718,
      "010": 3719,
      "HEATHER": 3720,
      "?...": 3721,
      "Lou": 3722,
      "ica": 3723,
      "ILLY": 3724,
      "bud": 3725,
      "careful": 3726,
      "Remember": 3727,
      "u4460": 3728,
      "product": 3729,
      "changed": 3730,
      "Certainly": 3731,
      "Ser": 3732,
      "slow": 3733,
      "m375": 3734,
      "roy": 3735,
      "374": 3736,
      "prise": 3737,
      "grap": 3738,
      "Ind": 3739,
      "JESS": 3740,
      "oub": 3741,
      "L527": 3742,
      "L661": 3743,
      "ELLEN": 3744,
      "726": 3745,
      "106": 3746,
      "u2340": 3747,
      "NIXON": 3748,
      "apo": 3749,
      "phy": 3750,
      "vious": 3751,
      "kept": 3752,
      "254": 3753,
      "sold": 3754,
      "load": 3755,
      "339": 3756,
      "583": 3757,
      "949": 3758,
      "805": 3759,
      "GIR": 3760,
      "pan": 3761,
      "incl": 3762,
      "ALY": 3763,
      "182": 3764,
      "MILLER": 3765,
      "Cor": 3766,
      "RENT": 3767,
      "dru": 3768,
      "wood": 3769,
      "m122": 3770,
      "irt": 3771,
      "tem": 3772,
      "817": 3773,
      "773": 3774,
      "QUIN": 3775,
      "WELLES": 3776,
      "??": 3777,
      "Rose": 3778,
      "vous": 3779,
      "anim": 3780,
      "m143": 3781,
      "L141": 3782,
      "Whatever": 3783,
      "certain": 3784,
      "BRA": 3785,
      "u4477": 3786,
      "born": 3787,
      "GITTES": 3788,
      "JAMES": 3789,
      "m426": 3790,
      "L235": 3791,
      "feet": 3792,
      "STA": 3793,
      "429": 3794,
      "586": 3795,
      "ized": 3796,
      "tin": 3797,
      "m457": 3798,
      "376": 3799,
      "718": 3800,
      "SEY": 3801,
      "sat": 3802,
      "m383": 3803,
      "u4449": 3804,
      "STEVE": 3805,
      "summer": 3806,
      "cry": 3807,
      "m248": 3808,
      "m395": 3809,
      "quiet": 3810,
      "ors": 3811,
      "m196": 3812,
      "806": 3813,
      "caught": 3814,
      "GILL": 3815,
      "876": 3816,
      "104": 3817,
      "mistake": 3818,
      "Mart": 3819,
      "Nick": 3820,
      "creat": 3821,
      "Daddy": 3822,
      "Ad": 3823,
      "vies": 3824,
      "m377": 3825,
      "ift": 3826,
      "OLI": 3827,
      "HOLLY": 3828,
      "JAN": 3829,
      "ied": 3830,
      "ping": 3831,
      "L290": 3832,
      "ELO": 3833,
      "ELYN": 3834,
      "EVELYN": 3835,
      "Call": 3836,
      "m98": 3837,
      "dies": 3838,
      "middle": 3839,
      "smell": 3840,
      "sus": 3841,
      "vic": 3842,
      "ots": 3843,
      "m388": 3844,
      "109": 3845,
      "draw": 3846,
      "CAT": 3847,
      "vide": 3848,
      "m356": 3849,
      "m473": 3850,
      "large": 3851,
      "m180": 3852,
      "REGGIE": 3853,
      "INGER": 3854,
      "college": 3855,
      "department": 3856,
      "m258": 3857,
      "m282": 3858,
      "u8677": 3859,
      "504": 3860,
      "LAURA": 3861,
      "size": 3862,
      "DIG": 3863,
      "m108": 3864,
      "m422": 3865,
      "partic": 3866,
      "marry": 3867,
      "favorite": 3868,
      "L315": 3869,
      "m454": 3870,
      "406": 3871,
      "commend": 3872,
      "m613": 3873,
      "IGH": 3874,
      "hung": 3875,
      "wise": 3876,
      "m189": 3877,
      "ties": 3878,
      "grad": 3879,
      "rench": 3880,
      "America": 3881,
      "fing": 3882,
      "mal": 3883,
      "m366": 3884,
      "Boy": 3885,
      "EPP": 3886,
      "pal": 3887,
      "sever": 3888,
      "L128": 3889,
      "neigh": 3890,
      "liked": 3891,
      "movies": 3892,
      "manager": 3893,
      "u1240": 3894,
      "Christmas": 3895,
      "WN": 3896,
      "aged": 3897,
      "749": 3898,
      "proper": 3899,
      "SUPER": 3900,
      "entr": 3901,
      "m125": 3902,
      "m30": 3903,
      "L121": 3904,
      "858": 3905,
      "Friday": 3906,
      "ALEXANDER": 3907,
      "LEONARD": 3908,
      "FLETCH": 3909,
      "LONG": 3910,
      "teach": 3911,
      "Peter": 3912,
      "TZ": 3913,
      "da": 3914,
      "L147": 3915,
      "moving": 3916,
      "broke": 3917,
      "tax": 3918,
      "ames": 3919,
      "GIRL": 3920,
      "'?": 3921,
      "tour": 3922,
      "memor": 3923,
      "m185": 3924,
      "L391": 3925,
      "L651": 3926,
      "501": 3927,
      "EPPS": 3928,
      "Fo": 3929,
      "m597": 3930,
      "m579": 3931,
      "m346": 3932,
      "SER": 3933,
      "doub": 3934,
      "round": 3935,
      "hael": 3936,
      "ESSE": 3937,
      "CAP": 3938,
      "Wor": 3939,
      "m520": 3940,
      "m43": 3941,
      "336": 3942,
      "107": 3943,
      "m524": 3944,
      "deep": 3945,
      "history": 3946,
      "prot": 3947,
      "message": 3948,
      "oun": 3949,
      "m534": 3950,
      "suc": 3951,
      "u3497": 3952,
      "GAR": 3953,
      "m574": 3954,
      "L175": 3955,
      "553": 3956,
      "lax": 3957,
      "student": 3958,
      "finitely": 3959,
      "m441": 3960,
      "tea": 3961,
      "776": 3962,
      "talked": 3963,
      "LINDA": 3964,
      "single": 3965,
      "Max": 3966,
      "SPOCK": 3967,
      "Big": 3968,
      "EMAN": 3969,
      "ply": 3970,
      "instead": 3971,
      "L431": 3972,
      "reading": 3973,
      "El": 3974,
      "bla": 3975,
      "during": 3976,
      "m488": 3977,
      "ional": 3978,
      "u7588": 3979,
      "completely": 3980,
      "AARON": 3981,
      "WOOD": 3982,
      "m280": 3983,
      "L345": 3984,
      "L535": 3985,
      "ety": 3986,
      "L660": 3987,
      "FFY": 3988,
      "Mother": 3989,
      "m548": 3990,
      "INS": 3991,
      "iff": 3992,
      "742": 3993,
      "quit": 3994,
      "Forget": 3995,
      "laugh": 3996,
      "Put": 3997,
      "boat": 3998,
      "contract": 3999,
      "Think": 4000,
      "LENA": 4001,
      "difficult": 4002,
      "Ear": 4003,
      "jump": 4004,
      "m39": 4005,
      "m394": 4006,
      "u3555": 4007,
      "CHER": 4008,
      "versity": 4009,
      "MCC": 4010,
      "Bud": 4011,
      "Gre": 4012,
      "m386": 4013,
      "L665": 4014,
      "rock": 4015,
      "illy": 4016,
      "Anyway": 4017,
      "Michael": 4018,
      "Ac": 4019,
      "uc": 4020,
      "atten": 4021,
      "L428": 4022,
      "ERIN": 4023,
      "tie": 4024,
      "loy": 4025,
      "AMY": 4026,
      "strange": 4027,
      "Try": 4028,
      "fly": 4029,
      "ric": 4030,
      "m592": 4031,
      "L575": 4032,
      "forward": 4033,
      "346": 4034,
      "MONICA": 4035,
      "os": 4036,
      "sli": 4037,
      "relax": 4038,
      "m526": 4039,
      "L508": 4040,
      "u4421": 4041,
      "Jeff": 4042,
      "LISA": 4043,
      "photo": 4044,
      "Bye": 4045,
      "swi": 4046,
      "recommend": 4047,
      "m33": 4048,
      "L127": 4049,
      "anywhere": 4050,
      "ELLA": 4051,
      "space": 4052,
      "restaurant": 4053,
      "m211": 4054,
      "L300": 4055,
      "L595": 4056,
      "402": 4057,
      "403": 4058,
      "nty": 4059,
      "ific": 4060,
      "extra": 4061,
      "hasn": 4062,
      "vision": 4063,
      "asses": 4064,
      "m142": 4065,
      "m481": 4066,
      "m413": 4067,
      "apers": 4068,
      "private": 4069,
      "welve": 4070,
      "m157": 4071,
      "sales": 4072,
      "MAS": 4073,
      "major": 4074,
      "finally": 4075,
      "moved": 4076,
      "GGY": 4077,
      "AB": 4078,
      "L430": 4079,
      "PEGGY": 4080,
      "CI": 4081,
      "Ray": 4082,
      "pot": 4083,
      "sitting": 4084,
      "m365": 4085,
      "L445": 4086,
      "doin": 4087,
      "u3727": 4088,
      "IEL": 4089,
      "uff": 4090,
      "m387": 4091,
      "outta": 4092,
      "CHIL": 4093,
      "SIDENT": 4094,
      "ok": 4095,
      "m146": 4096,
      "m331": 4097,
      "lfriend": 4098,
      "u1323": 4099,
      "gentle": 4100,
      "several": 4101,
      "ju": 4102,
      "m76": 4103,
      "ution": 4104,
      "ared": 4105,
      "Should": 4106,
      "driving": 4107,
      "contact": 4108,
      "organ": 4109,
      "SIM": 4110,
      "White": 4111,
      "tough": 4112,
      "ref": 4113,
      "ERAL": 4114,
      "118": 4115,
      "French": 4116,
      "m241": 4117,
      "lies": 4118,
      "teacher": 4119,
      "conne": 4120,
      "u4941": 4121,
      "HAL": 4122,
      "cru": 4123,
      "cket": 4124,
      "rich": 4125,
      "sake": 4126,
      "tern": 4127,
      "u5262": 4128,
      "PRESIDENT": 4129,
      "MS": 4130,
      "bast": 4131,
      "nment": 4132,
      "sche": 4133,
      "weight": 4134,
      "surance": 4135,
      "radio": 4136,
      "bow": 4137,
      "gain": 4138,
      "m509": 4139,
      "L388": 4140,
      "L198": 4141,
      "u4405": 4142,
      "calls": 4143,
      "FERGUS": 4144,
      "GENERAL": 4145,
      "profess": 4146,
      "',": 4147,
      "King": 4148,
      "SIE": 4149,
      "iv": 4150,
      "mes": 4151,
      "L515": 4152,
      "L291": 4153,
      "astic": 4154,
      "BRODY": 4155,
      "discuss": 4156,
      "burn": 4157,
      "wit": 4158,
      "m582": 4159,
      "L393": 4160,
      "716": 4161,
      "nervous": 4162,
      "u5161": 4163,
      "neighbor": 4164,
      "Hold": 4165,
      "SANDY": 4166,
      "cab": 4167,
      "mand": 4168,
      "upset": 4169,
      "col": 4170,
      "girlfriend": 4171,
      "decis": 4172,
      "Charlie": 4173,
      "u5016": 4174,
      "DIANE": 4175,
      "CENT": 4176,
      "RICH": 4177,
      "bucks": 4178,
      "m11": 4179,
      "L630": 4180,
      "hol": 4181,
      "518": 4182,
      "needed": 4183,
      "LOMB": 4184,
      "coun": 4185,
      "avail": 4186,
      "LOMBARD": 4187,
      "cise": 4188,
      "velo": 4189,
      "likes": 4190,
      "119": 4191,
      "702": 4192,
      "m612": 4193,
      "m187": 4194,
      "prepare": 4195,
      "BAST": 4196,
      "meant": 4197,
      "L441": 4198,
      "L108": 4199,
      "u3686": 4200,
      "802": 4201,
      "ETTE": 4202,
      "protect": 4203,
      "Sup": 4204,
      "ey": 4205,
      "m99": 4206,
      "mil": 4207,
      "song": 4208,
      "m222": 4209,
      "L585": 4210,
      "gover": 4211,
      "INDY": 4212,
      "789": 4213,
      "wedding": 4214,
      "Dick": 4215,
      "Mac": 4216,
      "MUL": 4217,
      "Mister": 4218,
      "fat": 4219,
      "sof": 4220,
      "m523": 4221,
      "m583": 4222,
      "m400": 4223,
      "address": 4224,
      "EARL": 4225,
      "HIL": 4226,
      "kno": 4227,
      "L348": 4228,
      "004": 4229,
      "SUE": 4230,
      "L93": 4231,
      "ror": 4232,
      "L251": 4233,
      "009": 4234,
      "appro": 4235,
      "quar": 4236,
      "VINCENT": 4237,
      "u5345": 4238,
      "swear": 4239,
      "Damn": 4240,
      "Satur": 4241,
      "cig": 4242,
      "thor": 4243,
      "L338": 4244,
      "L245": 4245,
      "ady": 4246,
      "ilt": 4247,
      "happening": 4248,
      "dangerous": 4249,
      "attention": 4250,
      "Four": 4251,
      "Mad": 4252,
      "abe": 4253,
      "wake": 4254,
      "reserv": 4255,
      "m15": 4256,
      "m115": 4257,
      "L375": 4258,
      "m31": 4259,
      "L447": 4260,
      "m49": 4261,
      "avy": 4262,
      "Most": 4263,
      "m596": 4264,
      "503": 4265,
      "film": 4266,
      "CCA": 4267,
      "JESSE": 4268,
      "Too": 4269,
      "sci": 4270,
      "m492": 4271,
      "ict": 4272,
      "unity": 4273,
      "781": 4274,
      "m609": 4275,
      "situation": 4276,
      "appointment": 4277,
      "MUM": 4278,
      "YLOR": 4279,
      "assho": 4280,
      "exer": 4281,
      "ROCK": 4282,
      "589": 4283,
      "u5164": 4284,
      "TAYLOR": 4285,
      "hurry": 4286,
      "prison": 4287,
      "bullshit": 4288,
      "JUNO": 4289,
      "JU": 4290,
      "bal": 4291,
      "m578": 4292,
      "m432": 4293,
      "idge": 4294,
      "choose": 4295,
      "ENA": 4296,
      "u2511": 4297,
      "THERINE": 4298,
      "DUDE": 4299,
      "cellent": 4300,
      "IVE": 4301,
      "VICK": 4302,
      "m186": 4303,
      "L598": 4304,
      "ISS": 4305,
      "MARGE": 4306,
      "percent": 4307,
      "involved": 4308,
      "ij": 4309,
      "m290": 4310,
      "m587": 4311,
      "m572": 4312,
      "L597": 4313,
      "m485": 4314,
      "u1364": 4315,
      "fucked": 4316,
      "HILDY": 4317,
      "Time": 4318,
      "boo": 4319,
      "drun": 4320,
      "hood": 4321,
      "L135": 4322,
      "706": 4323,
      "REBE": 4324,
      "TOMMY": 4325,
      "REBECCA": 4326,
      "itor": 4327,
      "non": 4328,
      "m213": 4329,
      "L481": 4330,
      "aret": 4331,
      "neck": 4332,
      "DELE": 4333,
      "wondering": 4334,
      "curity": 4335,
      "available": 4336,
      "Eve": 4337,
      "James": 4338,
      "dig": 4339,
      "owe": 4340,
      "L525": 4341,
      "u603": 4342,
      "CATHERINE": 4343,
      "Someone": 4344,
      "DUKE": 4345,
      "fifteen": 4346,
      "miles": 4347,
      "DIGNAN": 4348,
      "bird": 4349,
      "kit": 4350,
      "m448": 4351,
      "L205": 4352,
      "ANT": 4353,
      "excuse": 4354,
      "standing": 4355,
      "u2738": 4356,
      "FAITH": 4357,
      "CRAIG": 4358,
      "entire": 4359,
      "langu": 4360,
      "Mor": 4361,
      "Out": 4362,
      "bri": 4363,
      "bust": 4364,
      "ged": 4365,
      "ham": 4366,
      "u8300": 4367,
      "cops": 4368,
      "club": 4369,
      "Mike": 4370,
      "Sus": 4371,
      "YE": 4372,
      "m97": 4373,
      "park": 4374,
      "m156": 4375,
      "m343": 4376,
      "L288": 4377,
      "REED": 4378,
      "CKER": 4379,
      "bert": 4380,
      "Jimmy": 4381,
      "murder": 4382,
      "LAN": 4383,
      "vered": 4384,
      "L367": 4385,
      "print": 4386,
      "writing": 4387,
      "dire": 4388,
      "u7811": 4389,
      "famili": 4390,
      "PRO": 4391,
      "third": 4392,
      "reme": 4393,
      "m555": 4394,
      "m563": 4395,
      "m378": 4396,
      "L511": 4397,
      "Ber": 4398,
      "m155": 4399,
      "L115": 4400,
      "u1612": 4401,
      "u7713": 4402,
      "comfor": 4403,
      "ctions": 4404,
      "SAUN": 4405,
      "STEIN": 4406,
      "whether": 4407,
      "GON": 4408,
      "rate": 4409,
      "era": 4410,
      "necess": 4411,
      "except": 4412,
      "joke": 4413,
      "PETE": 4414,
      "u5076": 4415,
      "Everybody": 4416,
      "vacation": 4417,
      "Saturday": 4418,
      "L320": 4419,
      "u4057": 4420,
      "001": 4421,
      "spir": 4422,
      "SEBAST": 4423,
      "BATEMAN": 4424,
      "SEBASTIAN": 4425,
      "hid": 4426,
      "m63": 4427,
      "ille": 4428,
      "779": 4429,
      "conven": 4430,
      "SONNY": 4431,
      "pictures": 4432,
      "ountain": 4433,
      "GIN": 4434,
      "Hmm": 4435,
      "chen": 4436,
      "kiss": 4437,
      "tur": 4438,
      "beer": 4439,
      "m209": 4440,
      "Goodbye": 4441,
      "nin": 4442,
      "od": 4443,
      "pair": 4444,
      "m461": 4445,
      "m476": 4446,
      "u327": 4447,
      "tee": 4448,
      "plans": 4449,
      "u4398": 4450,
      "advice": 4451,
      "CHRISTY": 4452,
      "m28": 4453,
      "m260": 4454,
      "m261": 4455,
      "m232": 4456,
      "L448": 4457,
      "L130": 4458,
      "blue": 4459,
      "u3088": 4460,
      "DOYLE": 4461,
      "attack": 4462,
      "Walter": 4463,
      "TIM": 4464,
      "cir": 4465,
      "insurance": 4466,
      "forty": 4467,
      "nose": 4468,
      "783": 4469,
      "u1593": 4470,
      "L568": 4471,
      "L548": 4472,
      "L155": 4473,
      "852": 4474,
      "stock": 4475,
      "serve": 4476,
      "realize": 4477,
      "JENNY": 4478,
      "doubt": 4479,
      "FIN": 4480,
      "Lea": 4481,
      "Last": 4482,
      "natur": 4483,
      "ering": 4484,
      "L387": 4485,
      "L640": 4486,
      "STEW": 4487,
      "EMM": 4488,
      "scri": 4489,
      "apolog": 4490,
      "\".": 4491,
      "eh": 4492,
      "tre": 4493,
      "u955": 4494,
      "L347": 4495,
      "L421": 4496,
      "guest": 4497,
      "staying": 4498,
      "CLARENCE": 4499,
      "DI": 4500,
      "L305": 4501,
      "m421": 4502,
      "LAUR": 4503,
      "surpris": 4504,
      "possib": 4505,
      "NATHAN": 4506,
      "fresh": 4507,
      "KIM": 4508,
      "m392": 4509,
      "m468": 4510,
      "u8683": 4511,
      "area": 4512,
      "double": 4513,
      "ism": 4514,
      "L197": 4515,
      "plenty": 4516,
      "743": 4517,
      "SHA": 4518,
      "shoes": 4519,
      "u8767": 4520,
      "KAY": 4521,
      "!!!": 4522,
      "appear": 4523,
      "FOLEY": 4524,
      "SCOTTIE": 4525,
      "bat": 4526,
      "wine": 4527,
      "m173": 4528,
      "m310": 4529,
      "sud": 4530,
      "ANDREW": 4531,
      "u2196": 4532,
      "missed": 4533,
      "imagine": 4534,
      "MUMFORD": 4535,
      "L95": 4536,
      "Sid": 4537,
      "Scot": 4538,
      "lex": 4539,
      "L221": 4540,
      "u3519": 4541,
      "usual": 4542,
      "lovely": 4543,
      "DAVE": 4544,
      "emp": 4545,
      "PATRICK": 4546,
      "TREV": 4547,
      "drunk": 4548,
      "ugg": 4549,
      "L591": 4550,
      "m425": 4551,
      "L195": 4552,
      "ets": 4553,
      "THUR": 4554,
      "stopped": 4555,
      "LARRY": 4556,
      "m110": 4557,
      "m531": 4558,
      "L371": 4559,
      "across": 4560,
      "L635": 4561,
      "ONE": 4562,
      "lived": 4563,
      "breakfast": 4564,
      "relation": 4565,
      "destroy": 4566,
      "sudden": 4567,
      "ELE": 4568,
      "m191": 4569,
      "L395": 4570,
      "L461": 4571,
      "u8859": 4572,
      "urch": 4573,
      "def": 4574,
      "ILO": 4575,
      "ulations": 4576,
      "u7025": 4577,
      "More": 4578,
      "KATHRYN": 4579,
      "Col": 4580,
      "JILL": 4581,
      "MOM": 4582,
      "WES": 4583,
      "opp": 4584,
      "thy": 4585,
      "reco": 4586,
      "enny": 4587,
      "L308": 4588,
      "m497": 4589,
      "shi": 4590,
      "857": 4591,
      "que": 4592,
      "direct": 4593,
      "GABRI": 4594,
      "comfortable": 4595,
      "reach": 4596,
      "stri": 4597,
      "m253": 4598,
      "receive": 4599,
      "places": 4600,
      "hungry": 4601,
      "GIE": 4602,
      "u4359": 4603,
      "notice": 4604,
      "amaz": 4605,
      "007": 4606,
      "008": 4607,
      "lots": 4608,
      "Cause": 4609,
      "Lon": 4610,
      "taste": 4611,
      "m417": 4612,
      "iced": 4613,
      "L620": 4614,
      "wash": 4615,
      "STO": 4616,
      "JODY": 4617,
      "LOGAN": 4618,
      "perhaps": 4619,
      "m607": 4620,
      "ky": 4621,
      "m52": 4622,
      "L368": 4623,
      "m420": 4624,
      "003": 4625,
      "MAJOR": 4626,
      "102": 4627,
      "ATOR": 4628,
      "SHE": 4629,
      "rooms": 4630,
      "RICKY": 4631,
      "figured": 4632,
      "m245": 4633,
      "m183": 4634,
      "gotten": 4635,
      "807": 4636,
      "u4136": 4637,
      "particular": 4638,
      "Ph": 4639,
      "SUG": 4640,
      "m542": 4641,
      "m584": 4642,
      "m379": 4643,
      "L587": 4644,
      "L514": 4645,
      "ended": 4646,
      "shopping": 4647,
      "share": 4648,
      "TAIN": 4649,
      "pressed": 4650,
      "L87": 4651,
      "jam": 4652,
      "m262": 4653,
      "L148": 4654,
      "u547": 4655,
      "absolutely": 4656,
      "Wel": 4657,
      "aff": 4658,
      "JOSIE": 4659,
      "wearing": 4660,
      "KMAN": 4661,
      "Pat": 4662,
      "m14": 4663,
      "acked": 4664,
      "pecially": 4665,
      "condition": 4666,
      "Johnny": 4667,
      "voice": 4668,
      "VENKMAN": 4669,
      "chicken": 4670,
      "CAPTAIN": 4671,
      "ison": 4672,
      "arrest": 4673,
      "m153": 4674,
      "L435": 4675,
      "L293": 4676,
      "L648": 4677,
      "ulous": 4678,
      "aven": 4679,
      "killing": 4680,
      "speaking": 4681,
      "ROBINSON": 4682,
      "issu": 4683,
      "asy": 4684,
      "m551": 4685,
      "track": 4686,
      "trick": 4687,
      "TECT": 4688,
      "RISH": 4689,
      "beginning": 4690,
      "fur": 4691,
      "especially": 4692,
      "u3606": 4693,
      "816": 4694,
      "MACK": 4695,
      "loves": 4696,
      "DETECT": 4697,
      "UNG": 4698,
      "LIZ": 4699,
      "DETECTIVE": 4700,
      "Six": 4701,
      "ker": 4702,
      "m305": 4703,
      "u1416": 4704,
      "court": 4705,
      "success": 4706,
      "Spe": 4707,
      "bon": 4708,
      "egg": 4709,
      "iot": 4710,
      "jail": 4711,
      "ory": 4712,
      "L361": 4713,
      "gold": 4714,
      "814": 4715,
      "189": 4716,
      "m611": 4717,
      "famous": 4718,
      "training": 4719,
      "u1940": 4720,
      "tot": 4721,
      "L420": 4722,
      "rob": 4723,
      "hero": 4724,
      "correct": 4725,
      "JOEY": 4726,
      "Everyone": 4727,
      "learned": 4728,
      "NELL": 4729,
      "Rus": 4730,
      "iam": 4731,
      "van": 4732,
      "yuan": 4733,
      "belong": 4734,
      "m254": 4735,
      "m158": 4736,
      "u1785": 4737,
      "L611": 4738,
      "pper": 4739,
      "Looks": 4740,
      "rew": 4741,
      "u6552": 4742,
      "unless": 4743,
      "spent": 4744,
      "INGTON": 4745,
      "ETTA": 4746,
      "detail": 4747,
      "PARRISH": 4748,
      "KOR": 4749,
      "vil": 4750,
      "ino": 4751,
      "L460": 4752,
      "u3171": 4753,
      "broken": 4754,
      "contin": 4755,
      "OS": 4756,
      "twelve": 4757,
      "erman": 4758,
      "m410": 4759,
      "riage": 4760,
      "travel": 4761,
      "totally": 4762,
      ",\"": 4763,
      "m177": 4764,
      "m51": 4765,
      "L405": 4766,
      "m493": 4767,
      "L124": 4768,
      "ico": 4769,
      "u3803": 4770,
      "spot": 4771,
      "BRIAN": 4772,
      "patient": 4773,
      "OFFIC": 4774,
      "HI": 4775,
      "Rich": 4776,
      "Sch": 4777,
      "jud": 4778,
      "m67": 4779,
      "recent": 4780,
      "tech": 4781,
      "BUDDY": 4782,
      "skin": 4783,
      "BOND": 4784,
      "Sal": 4785,
      "gift": 4786,
      "m137": 4787,
      "L390": 4788,
      "u2687": 4789,
      "MARION": 4790,
      "u1469": 4791,
      "games": 4792,
      "Black": 4793,
      "reservation": 4794,
      "kitchen": 4795,
      "KUR": 4796,
      "Ted": 4797,
      "War": 4798,
      "m91": 4799,
      "m268": 4800,
      "m321": 4801,
      "L120": 4802,
      "709": 4803,
      "818": 4804,
      "grou": 4805,
      "intro": 4806,
      "eating": 4807,
      "ORDELL": 4808,
      "Alex": 4809,
      "CLER": 4810,
      "MENT": 4811,
      "equ": 4812,
      "L411": 4813,
      "L160": 4814,
      "ANTH": 4815,
      "L615": 4816,
      "gives": 4817,
      "URICE": 4818,
      "MOZAR": 4819,
      "decide": 4820,
      "ANTHONY": 4821,
      "\"?": 4822,
      "LT": 4823,
      "NINO": 4824,
      "Next": 4825,
      "stru": 4826,
      "L455": 4827,
      "L553": 4828,
      "uty": 4829,
      "u2314": 4830,
      "tape": 4831,
      "stor": 4832,
      "UDIA": 4833,
      "cording": 4834,
      "Exactly": 4835,
      "CLAUDIA": 4836,
      "TCHKA": 4837,
      "NINOTCHKA": 4838,
      "Fred": 4839,
      "Pl": 4840,
      "WHA": 4841,
      "vol": 4842,
      "sea": 4843,
      "weird": 4844,
      "u4115": 4845,
      "newsp": 4846,
      "u4535": 4847,
      "Stay": 4848,
      "RANDAL": 4849,
      "Cong": 4850,
      "L454": 4851,
      "L110": 4852,
      "L625": 4853,
      "u8902": 4854,
      "abo": 4855,
      "tight": 4856,
      "sale": 4857,
      "fol": 4858,
      "anne": 4859,
      "irm": 4860,
      "deposit": 4861,
      "THIA": 4862,
      "SEAN": 4863,
      "URSE": 4864,
      "m608": 4865,
      "picked": 4866,
      "ashing": 4867,
      "OLET": 4868,
      "General": 4869,
      "decision": 4870,
      "government": 4871,
      "MOZART": 4872,
      "sco": 4873,
      "m396": 4874,
      "L244": 4875,
      "L633": 4876,
      "listening": 4877,
      "LORETTA": 4878,
      "YOUNG": 4879,
      "client": 4880,
      "sand": 4881,
      "m385": 4882,
      "Hel": 4883,
      "definitely": 4884,
      "wrote": 4885,
      "earth": 4886,
      "dollar": 4887,
      "u7628": 4888,
      "CLERK": 4889,
      "BOR": 4890,
      "Father": 4891,
      "style": 4892,
      "m477": 4893,
      "L220": 4894,
      "nder": 4895,
      "note": 4896,
      "fear": 4897,
      "CHIE": 4898,
      "KEYE": 4899,
      "u1548": 4900,
      "walking": 4901,
      "HOLAS": 4902,
      "NICHOLAS": 4903,
      "HAWKEYE": 4904,
      "BURNS": 4905,
      "JESSICA": 4906,
      "CTOR": 4907,
      "Honey": 4908,
      "L593": 4909,
      "u4717": 4910,
      "ERSON": 4911,
      "pos": 4912,
      "701": 4913,
      "JOEL": 4914,
      "LOUISE": 4915,
      "schedu": 4916,
      "DIA": 4917,
      "GALE": 4918,
      "kin": 4919,
      "L350": 4920,
      "m372": 4921,
      "L565": 4922,
      "ONICA": 4923,
      "tered": 4924,
      "BARA": 4925,
      "BARBARA": 4926,
      "LYDIA": 4927,
      "VERONICA": 4928,
      "ZABETH": 4929,
      "smoke": 4930,
      "ELIZABETH": 4931,
      "Cha": 4932,
      "Ell": 4933,
      "RIN": 4934,
      "hum": 4935,
      "oid": 4936,
      "sight": 4937,
      "suck": 4938,
      "ann": 4939,
      "m264": 4940,
      "m274": 4941,
      "u8114": 4942,
      "018": 4943,
      "named": 4944,
      "missing": 4945,
      "u6940": 4946,
      "apped": 4947,
      "twice": 4948,
      "includ": 4949,
      "opport": 4950,
      "DUL": 4951,
      "cast": 4952,
      "m73": 4953,
      "none": 4954,
      "ined": 4955,
      "m12": 4956,
      "m529": 4957,
      "u5200": 4958,
      "truck": 4959,
      "Once": 4960,
      "u4960": 4961,
      "gener": 4962,
      "lawyer": 4963,
      "copy": 4964,
      "HAWK": 4965,
      "FREDDY": 4966,
      "Jake": 4967,
      "MEM": 4968,
      "SC": 4969,
      "Since": 4970,
      "m227": 4971,
      "L488": 4972,
      "ELMA": 4973,
      "513": 4974,
      "afford": 4975,
      "fied": 4976,
      "EMMA": 4977,
      "EX": 4978,
      "Five": 4979,
      "NURSE": 4980,
      "gra": 4981,
      "ki": 4982,
      "m86": 4983,
      "L137": 4984,
      "acket": 4985,
      "aine": 4986,
      "u2574": 4987,
      "LENNY": 4988,
      "JEAN": 4989,
      "Welcome": 4990,
      "Sher": 4991,
      "andy": 4992,
      "m218": 4993,
      "m47": 4994,
      "u4646": 4995,
      "L645": 4996,
      "ERIC": 4997,
      "LETTY": 4998,
      "covered": 4999,
      "trad": 5000,
      "kinda": 5001,
      "FRID": 5002,
      "GINGER": 5003,
      "camp": 5004,
      "iled": 5005,
      "u599": 5006,
      "772": 5007,
      "starting": 5008,
      "WHIT": 5009,
      "London": 5010,
      "FRIDA": 5011,
      "Sim": 5012,
      "WER": 5013,
      "mate": 5014,
      "L354": 5015,
      "L560": 5016,
      "m409": 5017,
      "L621": 5018,
      "812": 5019,
      "ROCKY": 5020,
      "fant": 5021,
      "ging": 5022,
      "push": 5023,
      "L487": 5024,
      "m430": 5025,
      "m401": 5026,
      "L167": 5027,
      "L248": 5028,
      "RATH": 5029,
      "CARLA": 5030,
      "u2735": 5031,
      "horse": 5032,
      "MITCHELL": 5033,
      "JUDGE": 5034,
      "FIS": 5035,
      "HANN": 5036,
      "KS": 5037,
      "San": 5038,
      "Sen": 5039,
      "Want": 5040,
      "bunch": 5041,
      "block": 5042,
      "scar": 5043,
      "ination": 5044,
      "remind": 5045,
      "m398": 5046,
      "m357": 5047,
      "L465": 5048,
      "L580": 5049,
      "weak": 5050,
      "u8329": 5051,
      "within": 5052,
      "loc": 5053,
      "putting": 5054,
      "killer": 5055,
      "JEANNE": 5056,
      "planning": 5057,
      "William": 5058,
      "u6921": 5059,
      "MCMURPHY": 5060,
      "Love": 5061,
      "glass": 5062,
      "HANNAH": 5063,
      "NTHIA": 5064,
      "m237": 5065,
      "u4729": 5066,
      "u861": 5067,
      "cock": 5068,
      "THELMA": 5069,
      "willing": 5070,
      "JASON": 5071,
      "DAY": 5072,
      "CYNTHIA": 5073,
      "ancy": 5074,
      "Russi": 5075,
      "Off": 5076,
      "zen": 5077,
      "requ": 5078,
      "u1357": 5079,
      "u6980": 5080,
      "peace": 5081,
      "STY": 5082,
      "u5572": 5083,
      "BARNES": 5084,
      "RUDY": 5085,
      "crap": 5086,
      "amazing": 5087,
      "WHALE": 5088,
      "wat": 5089,
      "m351": 5090,
      "m40": 5091,
      "u667": 5092,
      "rope": 5093,
      "host": 5094,
      "develo": 5095,
      "853": 5096,
      "hadn": 5097,
      "desk": 5098,
      "u2495": 5099,
      "STACY": 5100,
      "introdu": 5101,
      "KEL": 5102,
      "coo": 5103,
      "heavy": 5104,
      "L438": 5105,
      "u154": 5106,
      "509": 5107,
      "tood": 5108,
      "BOD": 5109,
      "TERRY": 5110,
      "divor": 5111,
      "cross": 5112,
      "rey": 5113,
      "ency": 5114,
      "L230": 5115,
      "Aren": 5116,
      "opin": 5117,
      "u3125": 5118,
      "corner": 5119,
      "u8408": 5120,
      "u1660": 5121,
      "JULIET": 5122,
      "GILLIS": 5123,
      "cigaret": 5124,
      "Ru": 5125,
      "WIN": 5126,
      "mot": 5127,
      "total": 5128,
      "u7959": 5129,
      "L632": 5130,
      "756": 5131,
      "ILLA": 5132,
      "JOSE": 5133,
      "surprise": 5134,
      "steal": 5135,
      "u5621": 5136,
      "EGER": 5137,
      "vy": 5138,
      "m447": 5139,
      "u7883": 5140,
      "u2312": 5141,
      "u1568": 5142,
      "BERN": 5143,
      "JULI": 5144,
      "Eddie": 5145,
      "OW": 5146,
      "Son": 5147,
      "bers": 5148,
      "darling": 5149,
      "stuck": 5150,
      "m590": 5151,
      "L258": 5152,
      "u6912": 5153,
      "soci": 5154,
      "ills": 5155,
      "THOR": 5156,
      "154": 5157,
      "TYLER": 5158,
      "RICHARD": 5159,
      "La": 5160,
      "kick": 5161,
      "sion": 5162,
      "m272": 5163,
      "L313": 5164,
      "nothin": 5165,
      "marriage": 5166,
      "u6045": 5167,
      "Monday": 5168,
      "WENDY": 5169,
      "popular": 5170,
      "ctr": 5171,
      "ners": 5172,
      "m566": 5173,
      "L440": 5174,
      "L154": 5175,
      "L262": 5176,
      "els": 5177,
      "RAM": 5178,
      "project": 5179,
      "MARK": 5180,
      "u3798": 5181,
      "flat": 5182,
      "bout": 5183,
      "har": 5184,
      "threat": 5185,
      "security": 5186,
      "bes": 5187,
      "m134": 5188,
      "L362": 5189,
      "agent": 5190,
      "manage": 5191,
      "cted": 5192,
      "JAEGER": 5193,
      "KEVIN": 5194,
      "Stre": 5195,
      "KATHY": 5196,
      "u8409": 5197,
      "exercise": 5198,
      "MP": 5199,
      "Mer": 5200,
      "bs": 5201,
      "ourselves": 5202,
      "708": 5203,
      "CHAN": 5204,
      "CARL": 5205,
      "hardly": 5206,
      "obvious": 5207,
      "u4866": 5208,
      "awful": 5209,
      "gency": 5210,
      "orders": 5211,
      "normal": 5212,
      "satis": 5213,
      "asshole": 5214,
      "necessary": 5215,
      "Lord": 5216,
      "Shall": 5217,
      "Tru": 5218,
      "crow": 5219,
      "L265": 5220,
      "854": 5221,
      "dying": 5222,
      "RIAM": 5223,
      "MIRIAM": 5224,
      "design": 5225,
      "medic": 5226,
      "seconds": 5227,
      "u8240": 5228,
      "CLARK": 5229,
      "MUN": 5230,
      "u114": 5231,
      "hole": 5232,
      "local": 5233,
      "MARC": 5234,
      "UGH": 5235,
      "charac": 5236,
      "custo": 5237,
      "logy": 5238,
      "smoking": 5239,
      "CU": 5240,
      "Sp": 5241,
      "L458": 5242,
      "L227": 5243,
      "u7712": 5244,
      "L67": 5245,
      "u5674": 5246,
      "BOUR": 5247,
      "LANDON": 5248,
      "THOMAS": 5249,
      "language": 5250,
      "L284": 5251,
      "u3409": 5252,
      "u4249": 5253,
      "impress": 5254,
      "traf": 5255,
      "acting": 5256,
      "BET": 5257,
      "UNCLE": 5258,
      "u3230": 5259,
      "excited": 5260,
      "honor": 5261,
      "traffic": 5262,
      "Bea": 5263,
      "Dep": 5264,
      "IAT": 5265,
      "MISS": 5266,
      "bi": 5267,
      "za": 5268,
      "m500": 5269,
      "L327": 5270,
      "L357": 5271,
      "L472": 5272,
      "L410": 5273,
      "vert": 5274,
      "L655": 5275,
      "ured": 5276,
      "unday": 5277,
      "tail": 5278,
      "LYN": 5279,
      "ITA": 5280,
      "Star": 5281,
      "LUC": 5282,
      "BAS": 5283,
      "Paris": 5284,
      "BERNSTEIN": 5285,
      "MIN": 5286,
      "ges": 5287,
      "papers": 5288,
      "m182": 5289,
      "L310": 5290,
      "m340": 5291,
      "aly": 5292,
      "L117": 5293,
      "u7283": 5294,
      "partner": 5295,
      "closed": 5296,
      "u8744": 5297,
      "green": 5298,
      "bathroom": 5299,
      "CHILI": 5300,
      "IST": 5301,
      "IERI": 5302,
      "L233": 5303,
      "force": 5304,
      "u7936": 5305,
      "fellow": 5306,
      "LESTER": 5307,
      "759": 5308,
      "774": 5309,
      "cious": 5310,
      "Before": 5311,
      "lines": 5312,
      "tickets": 5313,
      "fortun": 5314,
      "DOL": 5315,
      "meat": 5316,
      "m179": 5317,
      "m323": 5318,
      "L118": 5319,
      "mance": 5320,
      "LOOM": 5321,
      "perfor": 5322,
      "assist": 5323,
      "built": 5324,
      "keeps": 5325,
      "promised": 5326,
      "arrange": 5327,
      "CHANCE": 5328,
      "GOR": 5329,
      "Red": 5330,
      "cow": 5331,
      "m148": 5332,
      "L566": 5333,
      "m439": 5334,
      "weap": 5335,
      "bomb": 5336,
      "ends": 5337,
      "MAY": 5338,
      "writ": 5339,
      "Beij": 5340,
      "boyfriend": 5341,
      "magaz": 5342,
      "DRAKE": 5343,
      "VIKTOR": 5344,
      "products": 5345,
      "Beijing": 5346,
      "100": 5347,
      ">,": 5348,
      "City": 5349,
      "KANE": 5350,
      "sad": 5351,
      "m319": 5352,
      "L562": 5353,
      "ability": 5354,
      "warm": 5355,
      "u3993": 5356,
      "regular": 5357,
      "recei": 5358,
      "transfer": 5359,
      "responsible": 5360,
      "phys": 5361,
      "SUGAR": 5362,
      "Day": 5363,
      "Em": 5364,
      "Um": 5365,
      "gri": 5366,
      "m80": 5367,
      "nic": 5368,
      "m116": 5369,
      "m489": 5370,
      "docu": 5371,
      "active": 5372,
      "ANEY": 5373,
      "West": 5374,
      "amount": 5375,
      "705": 5376,
      "itten": 5377,
      "COO": 5378,
      "kinds": 5379,
      "u1598": 5380,
      "ressed": 5381,
      "u4166": 5382,
      "quality": 5383,
      "FELLOW": 5384,
      "LONGFELLOW": 5385,
      "DULANEY": 5386,
      "Fin": 5387,
      "Ha": 5388,
      "OV": 5389,
      "Rob": 5390,
      "national": 5391,
      "rup": 5392,
      "va": 5393,
      "sess": 5394,
      "bell": 5395,
      "m538": 5396,
      "ENE": 5397,
      "polit": 5398,
      "MAURICE": 5399,
      "angry": 5400,
      "Probably": 5401,
      "JUDY": 5402,
      "Ms": 5403,
      "sle": 5404,
      "silly": 5405,
      "bene": 5406,
      "m242": 5407,
      "m557": 5408,
      "moon": 5409,
      "MAVER": 5410,
      "083": 5411,
      "084": 5412,
      "crew": 5413,
      "u5065": 5414,
      "paying": 5415,
      "crime": 5416,
      "bastard": 5417,
      "MAVERICK": 5418,
      "Sunday": 5419,
      "Won": 5420,
      "ded": 5421,
      "var": 5422,
      "m259": 5423,
      "u4349": 5424,
      "L603": 5425,
      "ify": 5426,
      "rules": 5427,
      "u2173": 5428,
      "cards": 5429,
      "CLEMENT": 5430,
      "FISHER": 5431,
      "JOSEPH": 5432,
      "CLEMENTINE": 5433,
      "Over": 5434,
      "PAL": 5435,
      "TEN": 5436,
      "gin": 5437,
      "winter": 5438,
      "asleep": 5439,
      "L538": 5440,
      "L526": 5441,
      "Were": 5442,
      "urs": 5443,
      "556": 5444,
      "514": 5445,
      "SHERI": 5446,
      "keeping": 5447,
      "NEIL": 5448,
      "u1535": 5449,
      "Grand": 5450,
      "surprised": 5451,
      "BOURNE": 5452,
      "SHERIFF": 5453,
      "Sa": 5454,
      "ective": 5455,
      "L335": 5456,
      "L145": 5457,
      "cheap": 5458,
      "foreign": 5459,
      "speed": 5460,
      "career": 5461,
      "played": 5462,
      "u1071": 5463,
      "cute": 5464,
      "BREAN": 5465,
      "LILA": 5466,
      "immedi": 5467,
      "natural": 5468,
      "Mmm": 5469,
      "cake": 5470,
      "dry": 5471,
      "nur": 5472,
      "pu": 5473,
      "itude": 5474,
      "m349": 5475,
      "L504": 5476,
      "u5909": 5477,
      "558": 5478,
      "153": 5479,
      "lately": 5480,
      "graph": 5481,
      "blame": 5482,
      "OFFICER": 5483,
      "Er": 5484,
      "Park": 5485,
      "SAN": 5486,
      "Watch": 5487,
      "cars": 5488,
      "ened": 5489,
      "m255": 5490,
      "u1971": 5491,
      "imp": 5492,
      "saved": 5493,
      "RUBY": 5494,
      "CLAUDE": 5495,
      "subject": 5496,
      "dumb": 5497,
      "ior": 5498,
      "m263": 5499,
      "L194": 5500,
      "u753": 5501,
      "u6551": 5502,
      "somethin": 5503,
      "ures": 5504,
      "stories": 5505,
      "u1595": 5506,
      "u1520": 5507,
      "keys": 5508,
      "Absolutely": 5509,
      "BRAD": 5510,
      "relationship": 5511,
      "Cla": 5512,
      "rout": 5513,
      "m114": 5514,
      "L271": 5515,
      "u4602": 5516,
      "unic": 5517,
      "753": 5518,
      "ILOR": 5519,
      "STU": 5520,
      "CHA": 5521,
      "common": 5522,
      "raise": 5523,
      "u6136": 5524,
      "SAILOR": 5525,
      "u9017": 5526,
      "HAMMOND": 5527,
      "knock": 5528,
      "Leave": 5529,
      "recogn": 5530,
      "Street": 5531,
      "Has": 5532,
      "Jan": 5533,
      "Must": 5534,
      "RIE": 5535,
      "pig": 5536,
      "spl": 5537,
      "L433": 5538,
      "L434": 5539,
      "m438": 5540,
      "L260": 5541,
      "u8810": 5542,
      "u5455": 5543,
      "082": 5544,
      "156": 5545,
      "compet": 5546,
      "Somebody": 5547,
      "GASTON": 5548,
      "DOCTOR": 5549,
      "u1708": 5550,
      "Aw": 5551,
      "AID": 5552,
      "Lie": 5553,
      "TAL": 5554,
      "due": 5555,
      "m547": 5556,
      "ache": 5557,
      "u1952": 5558,
      "u6410": 5559,
      "u8633": 5560,
      "u5582": 5561,
      "mode": 5562,
      "PHIS": 5563,
      "u3763": 5564,
      "WILLARD": 5565,
      "u3321": 5566,
      "flu": 5567,
      "KOV": 5568,
      "employe": 5569,
      "MEMPHIS": 5570,
      "WHITE": 5571,
      "!?": 5572,
      "mountain": 5573,
      "tes": 5574,
      "m311": 5575,
      "m339": 5576,
      "L247": 5577,
      "acy": 5578,
      "u713": 5579,
      "113": 5580,
      "019": 5581,
      "BEAU": 5582,
      "file": 5583,
      "auto": 5584,
      "salary": 5585,
      "DUN": 5586,
      "Eu": 5587,
      "Hal": 5588,
      "waste": 5589,
      "L328": 5590,
      "...\"": 5591,
      "L523": 5592,
      "u8218": 5593,
      "arden": 5594,
      "DUFF": 5595,
      "DONNIE": 5596,
      "MARTINS": 5597,
      "WILSON": 5598,
      "DIL": 5599,
      "KIN": 5600,
      "L81": 5601,
      "MILO": 5602,
      "ech": 5603,
      "pounds": 5604,
      "u4404": 5605,
      "703": 5606,
      "CHO": 5607,
      "feels": 5608,
      "LIND": 5609,
      "u6967": 5610,
      "u8400": 5611,
      "L80": 5612,
      "pes": 5613,
      "lier": 5614,
      "icle": 5615,
      "wild": 5616,
      "u6983": 5617,
      "u3261": 5618,
      "dreams": 5619,
      "Louis": 5620,
      "memory": 5621,
      "further": 5622,
      "DISON": 5623,
      "TIN": 5624,
      "m460": 5625,
      "L144": 5626,
      "u859": 5627,
      "locked": 5628,
      "explo": 5629,
      "u6822": 5630,
      "descri": 5631,
      "chair": 5632,
      "VIV": 5633,
      "SUZ": 5634,
      "NANCY": 5635,
      "ratulations": 5636,
      "Back": 5637,
      "IP": 5638,
      "KID": 5639,
      "RING": 5640,
      "Sar": 5641,
      "Still": 5642,
      "fash": 5643,
      "eous": 5644,
      "aked": 5645,
      "ROSS": 5646,
      "TTI": 5647,
      "u7142": 5648,
      "airport": 5649,
      "LULA": 5650,
      "u7722": 5651,
      "u3266": 5652,
      "NAPO": 5653,
      "DERS": 5654,
      "u2691": 5655,
      "quickly": 5656,
      "VIVIAN": 5657,
      "NAPOLEON": 5658,
      "BRAN": 5659,
      "Fe": 5660,
      "Hot": 5661,
      "IOR": 5662,
      "Ken": 5663,
      "Mex": 5664,
      "cla": 5665,
      "pool": 5666,
      "ero": 5667,
      "m393": 5668,
      "m440": 5669,
      "L218": 5670,
      "lied": 5671,
      "u3884": 5672,
      "u3486": 5673,
      "u2603": 5674,
      "support": 5675,
      "u2138": 5676,
      "JEFFERSON": 5677,
      "evidence": 5678,
      "holiday": 5679,
      "m325": 5680,
      "u7410": 5681,
      "L628": 5682,
      "u1827": 5683,
      "u3493": 5684,
      "attend": 5685,
      "LOWELL": 5686,
      "PENELO": 5687,
      "investig": 5688,
      "Green": 5689,
      "opinion": 5690,
      "PENELOPE": 5691,
      "danc": 5692,
      "beach": 5693,
      "m543": 5694,
      "L234": 5695,
      "L253": 5696,
      "u7885": 5697,
      "L618": 5698,
      "512": 5699,
      "u1244": 5700,
      "Billy": 5701,
      "BIG": 5702,
      "BREN": 5703,
      "Ri": 5704,
      "Rick": 5705,
      "SKY": 5706,
      "onto": 5707,
      "L303": 5708,
      "L444": 5709,
      "L518": 5710,
      "L662": 5711,
      "u2784": 5712,
      "u556": 5713,
      "code": 5714,
      "dia": 5715,
      "u1799": 5716,
      "u6760": 5717,
      "u2244": 5718,
      "RENE": 5719,
      "Better": 5720,
      "Sha": 5721,
      "nuts": 5722,
      "ston": 5723,
      "argu": 5724,
      "excellent": 5725,
      "checked": 5726,
      "fired": 5727,
      "u5064": 5728,
      "u3820": 5729,
      "camera": 5730,
      "HUN": 5731,
      "KARL": 5732,
      "Tal": 5733,
      "m571": 5734,
      "m504": 5735,
      "admit": 5736,
      "ideas": 5737,
      "pray": 5738,
      "ngth": 5739,
      "WASH": 5740,
      "lights": 5741,
      "group": 5742,
      "L97": 5743,
      "ban": 5744,
      "ising": 5745,
      "ordin": 5746,
      "Chief": 5747,
      "u1178": 5748,
      "u5562": 5749,
      "driver": 5750,
      "holding": 5751,
      "SALIERI": 5752,
      "ANDERTON": 5753,
      "bottle": 5754,
      "tree": 5755,
      "m13": 5756,
      "m549": 5757,
      "L302": 5758,
      "L294": 5759,
      "uten": 5760,
      "L641": 5761,
      "L652": 5762,
      "chi": 5763,
      "feed": 5764,
      "nights": 5765,
      "drinking": 5766,
      "fighting": 5767,
      "JONES": 5768,
      "SKIP": 5769,
      "Bro": 5770,
      "Lee": 5771,
      "match": 5772,
      "army": 5773,
      "level": 5774,
      "u6484": 5775,
      "Tomorrow": 5776,
      "ARLING": 5777,
      "BUFFY": 5778,
      "BROWN": 5779,
      "evil": 5780,
      "daddy": 5781,
      "example": 5782,
      "IGHT": 5783,
      "SAUNDERS": 5784,
      "Ten": 5785,
      "lig": 5786,
      "u1916": 5787,
      "ada": 5788,
      "complain": 5789,
      "ROPER": 5790,
      "MAUDE": 5791,
      "forever": 5792,
      "names": 5793,
      "planet": 5794,
      "u2065": 5795,
      "appy": 5796,
      "electr": 5797,
      "soul": 5798,
      "practice": 5799,
      "counter": 5800,
      "apologize": 5801,
      "Help": 5802,
      "fashion": 5803,
      "L94": 5804,
      "Turn": 5805,
      "Twenty": 5806,
      "lab": 5807,
      "m64": 5808,
      "pin": 5809,
      "L376": 5810,
      "L306": 5811,
      "L485": 5812,
      "L483": 5813,
      "liz": 5814,
      "plant": 5815,
      "grab": 5816,
      "m604": 5817,
      "records": 5818,
      "suspect": 5819,
      "Buddy": 5820,
      "recently": 5821,
      "Gee": 5822,
      "Hen": 5823,
      "pis": 5824,
      "uce": 5825,
      "L462": 5826,
      "L505": 5827,
      "L103": 5828,
      "L257": 5829,
      "u3602": 5830,
      "u1255": 5831,
      "ference": 5832,
      "uses": 5833,
      "brea": 5834,
      "u1499": 5835,
      "u7806": 5836,
      "CAM": 5837,
      "L99": 5838,
      "PIL": 5839,
      "TRENT": 5840,
      "L507": 5841,
      "L146": 5842,
      "forgive": 5843,
      "u3057": 5844,
      "u728": 5845,
      "rible": 5846,
      "noticed": 5847,
      "873": 5848,
      "u3172": 5849,
      "BARON": 5850,
      "BARTON": 5851,
      "u3730": 5852,
      "final": 5853,
      "ski": 5854,
      "allowed": 5855,
      "Susan": 5856,
      "jour": 5857,
      "L126": 5858,
      "L182": 5859,
      "u4300": 5860,
      "757": 5861,
      "suff": 5862,
      "SHELLY": 5863,
      "ledge": 5864,
      "VIOLET": 5865,
      "WAYNE": 5866,
      "FRE": 5867,
      "Jap": 5868,
      "MU": 5869,
      "Sit": 5870,
      "bra": 5871,
      "L334": 5872,
      "L533": 5873,
      "L134": 5874,
      "u3713": 5875,
      "actor": 5876,
      "u2502": 5877,
      "780": 5878,
      "STAND": 5879,
      "CHAR": 5880,
      "fail": 5881,
      "u7337": 5882,
      "EVAN": 5883,
      "AGNES": 5884,
      "drugs": 5885,
      "Dor": 5886,
      "WI": 5887,
      "ds": 5888,
      "hey": 5889,
      "m362": 5890,
      "m474": 5891,
      "L142": 5892,
      "L236": 5893,
      "guard": 5894,
      "proud": 5895,
      "cream": 5896,
      "u8771": 5897,
      "bedroom": 5898,
      "u6230": 5899,
      "Doesn": 5900,
      "exciting": 5901,
      "flowers": 5902,
      "finger": 5903,
      "Jane": 5904,
      "gal": 5905,
      "L157": 5906,
      "idiot": 5907,
      "ilities": 5908,
      "tells": 5909,
      "kills": 5910,
      "barr": 5911,
      "responsib": 5912,
      "officer": 5913,
      "folks": 5914,
      "utenant": 5915,
      "BELL": 5916,
      "RILL": 5917,
      "m210": 5918,
      "L463": 5919,
      "L650": 5920,
      "ARTHUR": 5921,
      "ELWAY": 5922,
      "554": 5923,
      "COM": 5924,
      "starts": 5925,
      "u3075": 5926,
      "guns": 5927,
      "passed": 5928,
      "passport": 5929,
      "Check": 5930,
      "KENNY": 5931,
      "gradu": 5932,
      "SIMON": 5933,
      "soft": 5934,
      "MACKELWAY": 5935,
      "BAL": 5936,
      "IX": 5937,
      "Jerry": 5938,
      "nia": 5939,
      "staff": 5940,
      "L268": 5941,
      "aches": 5942,
      "u2938": 5943,
      "shirt": 5944,
      "872": 5945,
      "SET": 5946,
      "u3549": 5947,
      "HOOK": 5948,
      "u6774": 5949,
      "BLACK": 5950,
      "CATES": 5951,
      "JULIANNE": 5952,
      "Bull": 5953,
      "Cour": 5954,
      "L92": 5955,
      "Ter": 5956,
      "Vic": 5957,
      "Washing": 5958,
      "anti": 5959,
      "m412": 5960,
      "u4278": 5961,
      "rious": 5962,
      "u7133": 5963,
      "u3585": 5964,
      "walked": 5965,
      "pressure": 5966,
      "crimin": 5967,
      "Charles": 5968,
      "university": 5969,
      "CROW": 5970,
      "----------------": 5971,
      "buddy": 5972,
      "BRANDON": 5973,
      "WASHINGTON": 5974,
      "STANDARD": 5975,
      "ASY": 5976,
      "Pret": 5977,
      "rer": 5978,
      "ata": 5979,
      "sevent": 5980,
      "bey": 5981,
      "L131": 5982,
      "L206": 5983,
      "u4584": 5984,
      "u6413": 5985,
      "u6563": 5986,
      "crack": 5987,
      "CREASY": 5988,
      "QUINCY": 5989,
      "Mark": 5990,
      "WYN": 5991,
      "ga": 5992,
      "pus": 5993,
      "L346": 5994,
      "STARLING": 5995,
      "emer": 5996,
      "BECK": 5997,
      "mark": 5998,
      "breath": 5999,
      "buying": 6000,
      "u6367": 6001,
      "Prof": 6002,
      ">?": 6003,
      "FBI": 6004,
      "KIT": 6005,
      "L83": 6006,
      "Min": 6007,
      "Other": 6008,
      "Show": 6009,
      "L336": 6010,
      "L423": 6011,
      "L403": 6012,
      "L183": 6013,
      "L184": 6014,
      "L224": 6015,
      "identi": 6016,
      "u4505": 6017,
      "u2958": 6018,
      "church": 6019,
      "tiv": 6020,
      "impossible": 6021,
      "u2021": 6022,
      "ICHABOD": 6023,
      "mix": 6024,
      "effect": 6025,
      "YATT": 6026,
      "ridic": 6027,
      "instru": 6028,
      "VICKI": 6029,
      "schedule": 6030,
      "Fed": 6031,
      "hide": 6032,
      "L443": 6033,
      "L520": 6034,
      "L279": 6035,
      "u7442": 6036,
      "015": 6037,
      "LAZAR": 6038,
      "unders": 6039,
      "rush": 6040,
      "HARDY": 6041,
      "result": 6042,
      "WALT": 6043,
      "borrow": 6044,
      "TRAVIS": 6045,
      "familiar": 6046,
      "receipt": 6047,
      "Washington": 6048,
      "Cr": 6049,
      "DOM": 6050,
      "L78": 6051,
      "Mag": 6052,
      "RUS": 6053,
      "fru": 6054,
      "oil": 6055,
      "L513": 6056,
      "L168": 6057,
      "L123": 6058,
      "antic": 6059,
      "013": 6060,
      "talkin": 6061,
      "NEGAN": 6062,
      "hello": 6063,
      "WILLIE": 6064,
      "author": 6065,
      "u5747": 6066,
      "hunt": 6067,
      "loose": 6068,
      "KYLE": 6069,
      "SOMER": 6070,
      "duty": 6071,
      "nal": 6072,
      "L569": 6073,
      "L594": 6074,
      "u3283": 6075,
      "lyn": 6076,
      "ague": 6077,
      "seemed": 6078,
      "Andy": 6079,
      "trade": 6080,
      "blind": 6081,
      "u7524": 6082,
      "u4595": 6083,
      "u2147": 6084,
      "shows": 6085,
      "LIZA": 6086,
      "promot": 6087,
      "depends": 6088,
      "OLIVER": 6089,
      "LAURIE": 6090,
      "opportunity": 6091,
      "SOMERSET": 6092,
      "Cal": 6093,
      "HOR": 6094,
      "SSA": 6095,
      "ese": 6096,
      "erk": 6097,
      "m315": 6098,
      "L407": 6099,
      "u7649": 6100,
      "u4214": 6101,
      "---": 6102,
      "coat": 6103,
      "cel": 6104,
      "nother": 6105,
      "pocket": 6106,
      "JABE": 6107,
      "ELLIO": 6108,
      "u4828": 6109,
      "u1811": 6110,
      "Carl": 6111,
      "MELVIN": 6112,
      "STARKS": 6113,
      "EMMETT": 6114,
      "JABEZ": 6115,
      "WYATT": 6116,
      "ium": 6117,
      "heat": 6118,
      "veget": 6119,
      "L369": 6120,
      "L373": 6121,
      "m364": 6122,
      "m382": 6123,
      "L422": 6124,
      "L419": 6125,
      "L297": 6126,
      "L653": 6127,
      "cele": 6128,
      "convers": 6129,
      "u2585": 6130,
      "CONNELL": 6131,
      "Betty": 6132,
      "concerned": 6133,
      "television": 6134,
      "psycho": 6135,
      "Bri": 6136,
      "RELL": 6137,
      "fright": 6138,
      "mater": 6139,
      "ener": 6140,
      "icide": 6141,
      "icked": 6142,
      "u380": 6143,
      "u6649": 6144,
      "sometime": 6145,
      "ified": 6146,
      "002": 6147,
      "ples": 6148,
      "813": 6149,
      "u7574": 6150,
      "u3043": 6151,
      "Guess": 6152,
      "Aust": 6153,
      "ULA": 6154,
      "snow": 6155,
      "vive": 6156,
      "vice": 6157,
      "ato": 6158,
      "held": 6159,
      "orig": 6160,
      "L356": 6161,
      "L402": 6162,
      "L545": 6163,
      "u354": 6164,
      "u3252": 6165,
      "u7682": 6166,
      "onel": 6167,
      "worst": 6168,
      "proof": 6169,
      "helped": 6170,
      "Believe": 6171,
      "champ": 6172,
      "u5269": 6173,
      "simply": 6174,
      "Dani": 6175,
      "celebr": 6176,
      ">...": 6177,
      "GLER": 6178,
      "JORD": 6179,
      "Long": 6180,
      "L84": 6181,
      "Up": 6182,
      "ale": 6183,
      "ron": 6184,
      "ana": 6185,
      "L522": 6186,
      "L296": 6187,
      "brand": 6188,
      "u4065": 6189,
      "mming": 6190,
      "u8830": 6191,
      "JORDAN": 6192,
      "GRO": 6193,
      "m9": 6194,
      "L392": 6195,
      "L469": 6196,
      "L442": 6197,
      "L596": 6198,
      "L185": 6199,
      "L172": 6200,
      "L298": 6201,
      "u5507": 6202,
      "feelings": 6203,
      "u1767": 6204,
      "Major": 6205,
      "u6772": 6206,
      "DADDY": 6207,
      "ridiculous": 6208,
      "Another": 6209,
      "Hur": 6210,
      "House": 6211,
      "Kill": 6212,
      "master": 6213,
      "L312": 6214,
      "L352": 6215,
      "L534": 6216,
      "lift": 6217,
      "u3784": 6218,
      "itted": 6219,
      "tions": 6220,
      "written": 6221,
      "u3865": 6222,
      "sleeping": 6223,
      "BONES": 6224,
      "details": 6225,
      "bid": 6226,
      "atic": 6227,
      "bear": 6228,
      "L304": 6229,
      "L283": 6230,
      "u1272": 6231,
      "u4910": 6232,
      "L623": 6233,
      "u8819": 6234,
      "loan": 6235,
      "ROWAN": 6236,
      "rail": 6237,
      "player": 6238,
      "bigger": 6239,
      "newspaper": 6240,
      "Ever": 6241,
      "Fif": 6242,
      "centr": 6243,
      "tap": 6244,
      "thro": 6245,
      "m271": 6246,
      "L364": 6247,
      "L586": 6248,
      "hoping": 6249,
      "letters": 6250,
      "drag": 6251,
      "license": 6252,
      "u2369": 6253,
      "numbers": 6254,
      "Martin": 6255,
      "Earth": 6256,
      "character": 6257,
      "immediately": 6258,
      "Henry": 6259,
      "Cali": 6260,
      "DELA": 6261,
      "Little": 6262,
      "dick": 6263,
      "hook": 6264,
      "L366": 6265,
      "m328": 6266,
      "L490": 6267,
      "L282": 6268,
      "u1983": 6269,
      "u439": 6270,
      "u479": 6271,
      "006": 6272,
      "ROMA": 6273,
      "052": 6274,
      "SHER": 6275,
      "u5527": 6276,
      "LENORE": 6277,
      "pulled": 6278,
      "CROIX": 6279,
      "teeth": 6280,
      "origin": 6281,
      "Califor": 6282,
      "DELACROIX": 6283,
      "CLI": 6284,
      "Dis": 6285,
      "PSON": 6286,
      "Tues": 6287,
      "ik": 6288,
      "...!": 6289,
      "m317": 6290,
      "m384": 6291,
      "L113": 6292,
      "L242": 6293,
      "u1089": 6294,
      "u4906": 6295,
      "herself": 6296,
      "cies": 6297,
      "compan": 6298,
      "sports": 6299,
      "PROF": 6300,
      "issue": 6301,
      "Richard": 6302,
      "AUL": 6303,
      "South": 6304,
      "ZIN": 6305,
      "m8": 6306,
      "nature": 6307,
      "tar": 6308,
      "intell": 6309,
      "arms": 6310,
      "educ": 6311,
      "alian": 6312,
      "acqu": 6313,
      "u274": 6314,
      "u5317": 6315,
      "los": 6316,
      "tran": 6317,
      "ELLER": 6318,
      "older": 6319,
      "jobs": 6320,
      "u3139": 6321,
      "cents": 6322,
      "u5364": 6323,
      "boring": 6324,
      "Brown": 6325,
      "collect": 6326,
      "pieces": 6327,
      "milk": 6328,
      "LAZARUS": 6329,
      "HU": 6330,
      "LON": 6331,
      "Old": 6332,
      "dirty": 6333,
      "whis": 6334,
      "L446": 6335,
      "L231": 6336,
      "dogs": 6337,
      "u1407": 6338,
      "u2856": 6339,
      "ease": 6340,
      "056": 6341,
      "u2563": 6342,
      "u1893": 6343,
      "Ann": 6344,
      "attle": 6345,
      "CONWAY": 6346,
      "u6266": 6347,
      "CLARICE": 6348,
      "calm": 6349,
      "BETSY": 6350,
      "Pretty": 6351,
      "AUG": 6352,
      "Del": 6353,
      "LIE": 6354,
      "Mill": 6355,
      "TAR": 6356,
      "inc": 6357,
      "inno": 6358,
      "island": 6359,
      "u4281": 6360,
      "u260": 6361,
      "REA": 6362,
      "showed": 6363,
      "u4393": 6364,
      "easier": 6365,
      "command": 6366,
      "Juli": 6367,
      "risk": 6368,
      "soup": 6369,
      "prepared": 6370,
      "convenient": 6371,
      "CHIEF": 6372,
      "bb": 6373,
      "hoo": 6374,
      "yn": 6375,
      "stone": 6376,
      "u7666": 6377,
      "inda": 6378,
      "taught": 6379,
      "u3031": 6380,
      "IANA": 6381,
      "expected": 6382,
      "u6013": 6383,
      "professional": 6384,
      "STOCK": 6385,
      "ELLIOT": 6386,
      "California": 6387,
      "KU": 6388,
      "Su": 6389,
      "TU": 6390,
      "WFORD": 6391,
      "dump": 6392,
      "fits": 6393,
      "mist": 6394,
      "ury": 6395,
      "season": 6396,
      "m562": 6397,
      "L437": 6398,
      "L482": 6399,
      "L190": 6400,
      "L164": 6401,
      "L112": 6402,
      "L254": 6403,
      "libr": 6404,
      "losing": 6405,
      "SETH": 6406,
      "URT": 6407,
      "States": 6408,
      "STEPH": 6409,
      "licy": 6410,
      "Uncle": 6411,
      "current": 6412,
      "GUY": 6413,
      "GUARD": 6414,
      "Leon": 6415,
      "JAMIE": 6416,
      "Bobby": 6417,
      "animals": 6418,
      "DAM": 6419,
      "Eight": 6420,
      "Mur": 6421,
      "scr": 6422,
      "L496": 6423,
      "L457": 6424,
      "L543": 6425,
      "u3707": 6426,
      "u412": 6427,
      "L644": 6428,
      "river": 6429,
      "014": 6430,
      "bridge": 6431,
      "fucker": 6432,
      "u4587": 6433,
      "settle": 6434,
      "u7221": 6435,
      "iod": 6436,
      "Det": 6437,
      "Van": 6438,
      "WY": 6439,
      "bum": 6440,
      "map": 6441,
      "meal": 6442,
      "L551": 6443,
      "L187": 6444,
      "L246": 6445,
      "u1519": 6446,
      "L68": 6447,
      "L657": 6448,
      "u8880": 6449,
      "atest": 6450,
      "embarr": 6451,
      "runs": 6452,
      "u8142": 6453,
      "MARYLIN": 6454,
      "EMIL": 6455,
      "LYNN": 6456,
      "Ain": 6457,
      "AUD": 6458,
      "POR": 6459,
      "rap": 6460,
      "L399": 6461,
      "L324": 6462,
      "u313": 6463,
      "u1215": 6464,
      "TTA": 6465,
      "spare": 6466,
      "u6121": 6467,
      "u7869": 6468,
      "BERLIN": 6469,
      "HEAD": 6470,
      "u8498": 6471,
      "scene": 6472,
      "expecting": 6473,
      "bottom": 6474,
      "healthy": 6475,
      "TAT": 6476,
      "ears": 6477,
      "fund": 6478,
      "L349": 6479,
      "achel": 6480,
      "neither": 6481,
      "STIN": 6482,
      "LOIS": 6483,
      "stole": 6484,
      "leaves": 6485,
      "custom": 6486,
      "Tommy": 6487,
      "FRANCESCA": 6488,
      "medicine": 6489,
      "Air": 6490,
      "DRE": 6491,
      "ying": 6492,
      "ert": 6493,
      "lling": 6494,
      "arant": 6495,
      "wire": 6496,
      "policy": 6497,
      "saving": 6498,
      "exchange": 6499,
      "iling": 6500,
      "process": 6501,
      "themselves": 6502,
      "MARSH": 6503,
      "ables": 6504,
      "RIKER": 6505,
      "BERG": 6506,
      "survive": 6507,
      "Uni": 6508,
      "Comp": 6509,
      "MERRICK": 6510,
      "SERA": 6511,
      ">!": 6512,
      "Dude": 6513,
      "Happy": 6514,
      "KES": 6515,
      "SAND": 6516,
      "garden": 6517,
      "mood": 6518,
      "reck": 6519,
      "lli": 6520,
      "legs": 6521,
      "u779": 6522,
      "u6258": 6523,
      "upstairs": 6524,
      "event": 6525,
      "Thurs": 6526,
      "u6860": 6527,
      "Brit": 6528,
      "JULIA": 6529,
      "u3635": 6530,
      "screw": 6531,
      "animal": 6532,
      "victi": 6533,
      "WOODWARD": 6534,
      "Lieutenant": 6535,
      "SUZIE": 6536,
      "TAN": 6537,
      "bright": 6538,
      "asant": 6539,
      "kes": 6540,
      "m184": 6541,
      "L330": 6542,
      "L374": 6543,
      "L484": 6544,
      "u3357": 6545,
      "ached": 6546,
      "u1017": 6547,
      "016": 6548,
      "cape": 6549,
      "ATA": 6550,
      "u7522": 6551,
      "complic": 6552,
      "MILLS": 6553,
      "empty": 6554,
      "Rome": 6555,
      "VIR": 6556,
      "belie": 6557,
      "m360": 6558,
      "m359": 6559,
      "L169": 6560,
      "L122": 6561,
      "u3557": 6562,
      "u4258": 6563,
      "L624": 6564,
      "L617": 6565,
      "knowledge": 6566,
      "159": 6567,
      "u7837": 6568,
      "u8150": 6569,
      "drinks": 6570,
      "Holly": 6571,
      "PRIN": 6572,
      "BBS": 6573,
      "PIKE": 6574,
      "MULDER": 6575,
      "performance": 6576,
      "Tuesday": 6577,
      "Bru": 6578,
      "OF": 6579,
      "cous": 6580,
      "sil": 6581,
      "inde": 6582,
      "itself": 6583,
      "m135": 6584,
      "L149": 6585,
      "u4183": 6586,
      "advert": 6587,
      "ceed": 6588,
      "posed": 6589,
      "assign": 6590,
      "COP": 6591,
      "L359": 6592,
      "IANT": 6593,
      "earlier": 6594,
      "apply": 6595,
      "ESSOR": 6596,
      "seriously": 6597,
      "u7802": 6598,
      "NICOLE": 6599,
      "split": 6600,
      "PROFESSOR": 6601,
      "BALL": 6602,
      "German": 6603,
      "remain": 6604,
      "L578": 6605,
      "u4752": 6606,
      "verse": 6607,
      "commit": 6608,
      "ROGER": 6609,
      "Things": 6610,
      "ATU": 6611,
      "High": 6612,
      "u8437": 6613,
      "u7423": 6614,
      "QUAID": 6615,
      "BREE": 6616,
      "deliver": 6617,
      "circ": 6618,
      "Europe": 6619,
      "Profess": 6620,
      "Bank": 6621,
      "ired": 6622,
      "page": 6623,
      "tall": 6624,
      "request": 6625,
      "L386": 6626,
      "L536": 6627,
      "L552": 6628,
      "L556": 6629,
      "L114": 6630,
      "u3308": 6631,
      "L643": 6632,
      "u646": 6633,
      "u5652": 6634,
      "terms": 6635,
      "559": 6636,
      "BOYD": 6637,
      "u3092": 6638,
      "u7437": 6639,
      "learning": 6640,
      "communic": 6641,
      "Congratulations": 6642,
      "KILLA": 6643,
      "VILLE": 6644,
      "fet": 6645,
      "reed": 6646,
      "L161": 6647,
      "u3611": 6648,
      "u6351": 6649,
      "u884": 6650,
      "ours": 6651,
      "goods": 6652,
      "u7095": 6653,
      "BUZZ": 6654,
      "DERICK": 6655,
      "engine": 6656,
      "KILLAINE": 6657,
      "IKE": 6658,
      "Ver": 6659,
      "XANDER": 6660,
      "furn": 6661,
      "ys": 6662,
      "heaven": 6663,
      "L547": 6664,
      "m490": 6665,
      "L143": 6666,
      "u1106": 6667,
      "u7089": 6668,
      "L602": 6669,
      "Doc": 6670,
      "ESAR": 6671,
      "spec": 6672,
      "u8088": 6673,
      "u5771": 6674,
      "u9000": 6675,
      "u5668": 6676,
      "NOW": 6677,
      "Thomas": 6678,
      "Hard": 6679,
      "Jason": 6680,
      "MM": 6681,
      "WOR": 6682,
      "ray": 6683,
      "attr": 6684,
      "itions": 6685,
      "L329": 6686,
      "L412": 6687,
      "L219": 6688,
      "u7343": 6689,
      "tific": 6690,
      "aming": 6691,
      "BOO": 6692,
      "SHEL": 6693,
      "u4592": 6694,
      "payment": 6695,
      "stayed": 6696,
      "u8197": 6697,
      "Ask": 6698,
      "horrible": 6699,
      "CRAWFORD": 6700,
      "Steven": 6701,
      "DIANA": 6702,
      "telephone": 6703,
      "!...": 6704,
      "Bur": 6705,
      "Dave": 6706,
      "Under": 6707,
      "cure": 6708,
      "m226": 6709,
      "L426": 6710,
      "L664": 6711,
      "u8950": 6712,
      "ending": 6713,
      "sume": 6714,
      "served": 6715,
      "u5545": 6716,
      "shape": 6717,
      "higher": 6718,
      "Chris": 6719,
      "United": 6720,
      "SYKES": 6721,
      "BRYN": 6722,
      "CTRA": 6723,
      "ET": 6724,
      "L471": 6725,
      "L502": 6726,
      "L584": 6727,
      "L285": 6728,
      "L287": 6729,
      "L614": 6730,
      "809": 6731,
      "ESSA": 6732,
      "Goddamn": 6733,
      "u3794": 6734,
      "greatest": 6735,
      "u5496": 6736,
      "PRICE": 6737,
      "ELECTRA": 6738,
      "claim": 6739,
      "\"...": 6740,
      "DATA": 6741,
      "aa": 6742,
      "dun": 6743,
      "gan": 6744,
      "m81": 6745,
      "pil": 6746,
      "research": 6747,
      "L499": 6748,
      "L626": 6749,
      "550": 6750,
      "u7573": 6751,
      "biggest": 6752,
      "shower": 6753,
      "u7088": 6754,
      "u6532": 6755,
      "LUCY": 6756,
      "u5394": 6757,
      "sky": 6758,
      "GABRIEL": 6759,
      "watched": 6760,
      "dancing": 6761,
      "GRAND": 6762,
      "SLO": 6763,
      "gro": 6764,
      "sour": 6765,
      "tast": 6766,
      "section": 6767,
      "L341": 6768,
      "u1859": 6769,
      "u1784": 6770,
      "akes": 6771,
      "unny": 6772,
      "everywhere": 6773,
      "male": 6774,
      "u5522": 6775,
      "countries": 6776,
      "MOUR": 6777,
      "u5138": 6778,
      "Always": 6779,
      "medical": 6780,
      "aware": 6781,
      "u5800": 6782,
      "Roy": 6783,
      "KIRSTY": 6784,
      "faster": 6785,
      "GUMP": 6786,
      "Command": 6787,
      "following": 6788,
      "BRETT": 6789,
      "ERIK": 6790,
      "AARONOW": 6791,
      "suddenly": 6792,
      "conversation": 6793,
      "library": 6794,
      "BAND": 6795,
      "KLU": 6796,
      "Sy": 6797,
      "Same": 6798,
      "cro": 6799,
      "mare": 6800,
      "pun": 6801,
      "online": 6802,
      "habit": 6803,
      "L554": 6804,
      "m466": 6805,
      "L193": 6806,
      "ids": 6807,
      "u4555": 6808,
      "u4808": 6809,
      "cher": 6810,
      "meaning": 6811,
      "spring": 6812,
      "OME": 6813,
      "u3891": 6814,
      "QUIAT": 6815,
      "balls": 6816,
      "SARA": 6817,
      "deserve": 6818,
      "eggs": 6819,
      "BASQUIAT": 6820,
      "BRYNNER": 6821,
      "CINDY": 6822,
      "Find": 6823,
      "NOLD": 6824,
      "SMI": 6825,
      "loud": 6826,
      "rant": 6827,
      "ume": 6828,
      "wis": 6829,
      "theart": 6830,
      "L558": 6831,
      "alous": 6832,
      "L274": 6833,
      "u1457": 6834,
      "L636": 6835,
      "adm": 6836,
      "ads": 6837,
      "tire": 6838,
      "508": 6839,
      "nail": 6840,
      "MAYA": 6841,
      "u7594": 6842,
      "Franc": 6843,
      "NORMA": 6844,
      "climb": 6845,
      "AS": 6846,
      "Cra": 6847,
      "KING": 6848,
      "TMAN": 6849,
      "tu": 6850,
      "zing": 6851,
      "represent": 6852,
      "L427": 6853,
      "limit": 6854,
      "alley": 6855,
      "u3277": 6856,
      "activ": 6857,
      "tery": 6858,
      "CKARD": 6859,
      "lets": 6860,
      "prin": 6861,
      "helping": 6862,
      "hired": 6863,
      "Inter": 6864,
      "CASE": 6865,
      "u3050": 6866,
      "State": 6867,
      "damage": 6868,
      "u6944": 6869,
      "beauty": 6870,
      "u3341": 6871,
      "general": 6872,
      "PARKER": 6873,
      "temper": 6874,
      "swimming": 6875,
      "Bruce": 6876,
      "AA": 6877,
      "Mama": 6878,
      "OD": 6879,
      "Sho": 6880,
      "WEY": 6881,
      "thr": 6882,
      "incred": 6883,
      "m535": 6884,
      "L564": 6885,
      "among": 6886,
      "aker": 6887,
      "u1042": 6888,
      "turns": 6889,
      "u6845": 6890,
      "BABE": 6891,
      "JERE": 6892,
      "England": 6893,
      "wards": 6894,
      "SUSIE": 6895,
      "DICKSON": 6896,
      "hanging": 6897,
      "football": 6898,
      "LILY": 6899,
      "science": 6900,
      "Sheriff": 6901,
      "MUNNY": 6902,
      "beyond": 6903,
      "Wil": 6904,
      "etheart": 6905,
      "lone": 6906,
      "nis": 6907,
      "pants": 6908,
      "tit": 6909,
      "yard": 6910,
      "lip": 6911,
      "L616": 6912,
      "u8714": 6913,
      "u525": 6914,
      "u511": 6915,
      "fered": 6916,
      "RAS": 6917,
      "guarant": 6918,
      "DEWEY": 6919,
      "heads": 6920,
      "u1064": 6921,
      "u4020": 6922,
      "Johnson": 6923,
      "u5750": 6924,
      "Robert": 6925,
      "gress": 6926,
      "dropped": 6927,
      "u5746": 6928,
      "lence": 6929,
      "drug": 6930,
      "video": 6931,
      "taxi": 6932,
      "Thursday": 6933,
      "HOMER": 6934,
      "L82": 6935,
      "SUL": 6936,
      "dressed": 6937,
      "pers": 6938,
      "L589": 6939,
      "u695": 6940,
      "u838": 6941,
      "u5310": 6942,
      "knowing": 6943,
      "LEIA": 6944,
      "provide": 6945,
      "CKETT": 6946,
      "rule": 6947,
      "u1108": 6948,
      "u7877": 6949,
      "u5397": 6950,
      "SEYMOUR": 6951,
      "witness": 6952,
      "TREVES": 6953,
      "judge": 6954,
      "Professor": 6955,
      "EVER": 6956,
      "cing": 6957,
      "ians": 6958,
      "stit": 6959,
      "L380": 6960,
      "L292": 6961,
      "THOM": 6962,
      "goodbye": 6963,
      "stomach": 6964,
      "u6068": 6965,
      "Life": 6966,
      "strength": 6967,
      "bags": 6968,
      "u7805": 6969,
      "SCHA": 6970,
      "perfectly": 6971,
      "TALLEY": 6972,
      "L91": 6973,
      "TANN": 6974,
      "harm": 6975,
      "L439": 6976,
      "u1273": 6977,
      "u4451": 6978,
      "u6555": 6979,
      "goti": 6980,
      "period": 6981,
      "laid": 6982,
      "MIER": 6983,
      "Stan": 6984,
      "u8770": 6985,
      "Today": 6986,
      "ZACK": 6987,
      "Hope": 6988,
      "Trust": 6989,
      "madam": 6990,
      "purpose": 6991,
      "students": 6992,
      "BANDIT": 6993,
      "HOL": 6994,
      "Kar": 6995,
      "Pop": 6996,
      "Que": 6997,
      "TRU": 6998,
      "Ya": 6999,
      "jest": 7000,
      "m96": 7001,
      "m510": 7002,
      "L576": 7003,
      "u7856": 7004,
      "L634": 7005,
      "u8623": 7006,
      "u2815": 7007,
      "tip": 7008,
      "u7593": 7009,
      "m614": 7010,
      "Haven": 7011,
      "Except": 7012,
      "logical": 7013,
      "TOBY": 7014,
      "DANIEL": 7015,
      "enjoyed": 7016,
      "concern": 7017,
      "tempt": 7018,
      "neighborhood": 7019,
      "writer": 7020,
      "emergency": 7021,
      "Agent": 7022,
      "L86": 7023,
      "MOLLY": 7024,
      "ience": 7025,
      "jacket": 7026,
      "L378": 7027,
      "m354": 7028,
      "L467": 7029,
      "L414": 7030,
      "L138": 7031,
      "L232": 7032,
      "L249": 7033,
      "icy": 7034,
      "u3777": 7035,
      "u6633": 7036,
      "nel": 7037,
      "mob": 7038,
      "uncle": 7039,
      "MAT": 7040,
      "faith": 7041,
      "emot": 7042,
      "UNT": 7043,
      "invited": 7044,
      "BIALY": 7045,
      "AUSTIN": 7046,
      "Jeffrey": 7047,
      "fruit": 7048,
      "BIALYSTOCK": 7049,
      "ADELE": 7050,
      "Sw": 7051,
      "WIG": 7052,
      "ka": 7053,
      "L396": 7054,
      "u8410": 7055,
      "MADELE": 7056,
      "discount": 7057,
      "u7324": 7058,
      "farm": 7059,
      "sixty": 7060,
      "Bring": 7061,
      "reasonable": 7062,
      "brothers": 7063,
      "DANA": 7064,
      "u4295": 7065,
      "GENE": 7066,
      "Holy": 7067,
      "changes": 7068,
      "package": 7069,
      "World": 7070,
      "Colonel": 7071,
      "BOOTH": 7072,
      "THOMPSON": 7073,
      "MADELEINE": 7074,
      "Nah": 7075,
      "Rel": 7076,
      "firm": 7077,
      "L542": 7078,
      "L129": 7079,
      "L176": 7080,
      "L269": 7081,
      "L239": 7082,
      "dozen": 7083,
      "ANA": 7084,
      "gettin": 7085,
      "social": 7086,
      "exist": 7087,
      "LACE": 7088,
      "u8500": 7089,
      "checking": 7090,
      "TONY": 7091,
      "trial": 7092,
      "studying": 7093,
      "square": 7094,
      "viron": 7095,
      "possibly": 7096,
      "received": 7097,
      "employees": 7098,
      "Cool": 7099,
      "Du": 7100,
      "Many": 7101,
      "None": 7102,
      "Room": 7103,
      "Whe": 7104,
      "fed": 7105,
      "ires": 7106,
      "phi": 7107,
      "ences": 7108,
      "m297": 7109,
      "L333": 7110,
      "L413": 7111,
      "L173": 7112,
      "u362": 7113,
      "u4710": 7114,
      "u2415": 7115,
      "cks": 7116,
      "CAST": 7117,
      "ITY": 7118,
      "u6896": 7119,
      "u8467": 7120,
      "u7295": 7121,
      "parking": 7122,
      "doors": 7123,
      "u4631": 7124,
      "shooting": 7125,
      "unior": 7126,
      "VALIANT": 7127,
      "gentlemen": 7128,
      "Hotel": 7129,
      "energy": 7130,
      "innocent": 7131,
      "Pre": 7132,
      "flying": 7133,
      "lugg": 7134,
      "rot": 7135,
      "L119": 7136,
      "u3273": 7137,
      "u1319": 7138,
      "u1152": 7139,
      "u6208": 7140,
      "u8674": 7141,
      "negoti": 7142,
      "MAGGIE": 7143,
      "USS": 7144,
      "HEALY": 7145,
      "Anna": 7146,
      "insane": 7147,
      "GAST": 7148,
      "fixed": 7149,
      "swim": 7150,
      "tradition": 7151,
      "introduce": 7152,
      "nurse": 7153,
      "Daniel": 7154,
      "customers": 7155,
      "KLUTE": 7156,
      "DLER": 7157,
      "FLOR": 7158,
      "cand": 7159,
      "fan": 7160,
      "fra": 7161,
      "gate": 7162,
      "nut": 7163,
      "ises": 7164,
      "became": 7165,
      "L325": 7166,
      "u3604": 7167,
      "u1005": 7168,
      "L619": 7169,
      "u5243": 7170,
      "shar": 7171,
      "LEVEN": 7172,
      "useum": 7173,
      "express": 7174,
      "ula": 7175,
      "u5524": 7176,
      "u7037": 7177,
      "Brad": 7178,
      "u2688": 7179,
      "invite": 7180,
      "extreme": 7181,
      "Senator": 7182,
      "magazine": 7183,
      "lonely": 7184,
      "LEVENE": 7185,
      "Cle": 7186,
      "Str": 7187,
      "ado": 7188,
      "bite": 7189,
      "chat": 7190,
      "gree": 7191,
      "repe": 7192,
      "arry": 7193,
      "ening": 7194,
      "m515": 7195,
      "m361": 7196,
      "ald": 7197,
      "L180": 7198,
      "u1184": 7199,
      "ANZA": 7200,
      "L622": 7201,
      "u6114": 7202,
      "INI": 7203,
      "files": 7204,
      "hearing": 7205,
      "bringing": 7206,
      "opened": 7207,
      "u920": 7208,
      "ZZI": 7209,
      "legal": 7210,
      "miral": 7211,
      "Francis": 7212,
      "Bab": 7213,
      "Chi": 7214,
      "Ele": 7215,
      "Gor": 7216,
      "NEL": 7217,
      "Way": 7218,
      "stat": 7219,
      "L406": 7220,
      "u1806": 7221,
      "amb": 7222,
      "JAY": 7223,
      "ISH": 7224,
      "talent": 7225,
      "hire": 7226,
      "understanding": 7227,
      "applic": 7228,
      "costs": 7229,
      "u1706": 7230,
      "Marty": 7231,
      "property": 7232,
      "birds": 7233,
      "continue": 7234,
      "companies": 7235,
      "vironment": 7236,
      "Hor": 7237,
      "NAR": 7238,
      "Tri": 7239,
      "rick": 7240,
      "u915": 7241,
      "vot": 7242,
      "wers": 7243,
      "L317": 7244,
      "L111": 7245,
      "L133": 7246,
      "L202": 7247,
      "access": 7248,
      "Italian": 7249,
      "LOVE": 7250,
      "ANNETTE": 7251,
      "BOW": 7252,
      "CAS": 7253,
      "u6098": 7254,
      "matters": 7255,
      "u5891": 7256,
      "VIER": 7257,
      "PRIE": 7258,
      "BLADE": 7259,
      "crying": 7260,
      "Admiral": 7261,
      "ships": 7262,
      "SOO": 7263,
      "bly": 7264,
      "ost": 7265,
      "ordered": 7266,
      "L474": 7267,
      "L203": 7268,
      "u3801": 7269,
      "L609": 7270,
      "LEX": 7271,
      "CHARLO": 7272,
      "quot": 7273,
      "cture": 7274,
      "finding": 7275,
      "NEO": 7276,
      "mostly": 7277,
      "CARLO": 7278,
      "u6523": 7279,
      "elly": 7280,
      "u2847": 7281,
      "WALLACE": 7282,
      "u7227": 7283,
      "freak": 7284,
      "secretary": 7285,
      "KELVIN": 7286,
      "throat": 7287,
      "Company": 7288,
      "CHARLOTTE": 7289,
      "FTON": 7290,
      "Law": 7291,
      "Yep": 7292,
      "wast": 7293,
      "stea": 7294,
      "L506": 7295,
      "L241": 7296,
      "Nope": 7297,
      "REILLY": 7298,
      "RIB": 7299,
      "parts": 7300,
      "PAULA": 7301,
      "u4192": 7302,
      "u8065": 7303,
      "u7237": 7304,
      "KITTLE": 7305,
      "u5749": 7306,
      "AGENT": 7307,
      "above": 7308,
      "FKA": 7309,
      "HON": 7310,
      "center": 7311,
      "vio": 7312,
      "thetic": 7313,
      "itation": 7314,
      "separ": 7315,
      "L106": 7316,
      "u3584": 7317,
      "L612": 7318,
      "u6622": 7319,
      "pleasant": 7320,
      "button": 7321,
      "ROBY": 7322,
      "pregn": 7323,
      "BOOK": 7324,
      "speech": 7325,
      "rub": 7326,
      "u6190": 7327,
      "u7158": 7328,
      "KAFKA": 7329,
      "avoid": 7330,
      "internet": 7331,
      "positive": 7332,
      "u4268": 7333,
      "CORN": 7334,
      "COOPER": 7335,
      "Cas": 7336,
      "Dea": 7337,
      "SWAN": 7338,
      "WOO": 7339,
      "nu": 7340,
      "vill": 7341,
      "aylor": 7342,
      "L358": 7343,
      "L544": 7344,
      "L524": 7345,
      "L572": 7346,
      "u1906": 7347,
      "u7226": 7348,
      "u676": 7349,
      "colate": 7350,
      "noise": 7351,
      "ROSEN": 7352,
      "053": 7353,
      "BERNIE": 7354,
      "stern": 7355,
      "opening": 7356,
      "u8867": 7357,
      "Indian": 7358,
      "quarter": 7359,
      "divorce": 7360,
      "Talk": 7361,
      "dunno": 7362,
      "jesty": 7363,
      "SOOZE": 7364,
      "SEL": 7365,
      "Taylor": 7366,
      "cult": 7367,
      "econ": 7368,
      "sne": 7369,
      "beef": 7370,
      "environment": 7371,
      "u7319": 7372,
      "u6204": 7373,
      "plus": 7374,
      "comin": 7375,
      "whose": 7376,
      "u5526": 7377,
      "latest": 7378,
      "u3843": 7379,
      "stein": 7380,
      "Grace": 7381,
      "jealous": 7382,
      "fortunately": 7383,
      "AVIK": 7384,
      "Den": 7385,
      "PLA": 7386,
      "gam": 7387,
      "rum": 7388,
      "sie": 7389,
      "L503": 7390,
      "L229": 7391,
      "wet": 7392,
      "u1405": 7393,
      "arent": 7394,
      "tooth": 7395,
      "bling": 7396,
      "classes": 7397,
      "supp": 7398,
      "HARPER": 7399,
      "SAAVIK": 7400,
      "u4630": 7401,
      "MCCLE": 7402,
      "sexual": 7403,
      "factory": 7404,
      "recognize": 7405,
      "FRY": 7406,
      "Jen": 7407,
      "Mm": 7408,
      "bread": 7409,
      "kne": 7410,
      "pi": 7411,
      "pity": 7412,
      "lle": 7413,
      "sees": 7414,
      "L389": 7415,
      "L491": 7416,
      "L217": 7417,
      "L204": 7418,
      "ghost": 7419,
      "liar": 7420,
      "u3819": 7421,
      "u2452": 7422,
      "impressed": 7423,
      "upon": 7424,
      "MATH": 7425,
      "LADY": 7426,
      "umber": 7427,
      "ester": 7428,
      "audi": 7429,
      "u7940": 7430,
      "huge": 7431,
      "advant": 7432,
      "delivery": 7433,
      "hiding": 7434,
      "Brother": 7435,
      "responsibility": 7436,
      "University": 7437,
      "SHELDRAKE": 7438,
      "TANNER": 7439,
      "WIGAND": 7440,
      "MEN": 7441,
      "Ob": 7442,
      "bby": 7443,
      "mic": 7444,
      "piss": 7445,
      "sor": 7446,
      "asing": 7447,
      "L489": 7448,
      "L456": 7449,
      "L516": 7450,
      "u5951": 7451,
      "u5615": 7452,
      "bodies": 7453,
      "ulation": 7454,
      "ender": 7455,
      "closer": 7456,
      "u5074": 7457,
      "u7366": 7458,
      "easily": 7459,
      "chall": 7460,
      "u7965": 7461,
      "BBIE": 7462,
      "virus": 7463,
      "juice": 7464,
      "turning": 7465,
      "Mexico": 7466,
      "luggage": 7467,
      "DES": 7468,
      "DRI": 7469,
      "dish": 7470,
      "stars": 7471,
      "L477": 7472,
      "L417": 7473,
      "L259": 7474,
      "u387": 7475,
      "u4216": 7476,
      "u6612": 7477,
      "u6696": 7478,
      "INDIANA": 7479,
      "DECKARD": 7480,
      "JOHANA": 7481,
      "u5173": 7482,
      "THEA": 7483,
      "STEED": 7484,
      "u1463": 7485,
      "u8262": 7486,
      "painting": 7487,
      "Blue": 7488,
      "selling": 7489,
      "atives": 7490,
      "arrived": 7491,
      "spoke": 7492,
      "WOODLY": 7493,
      "guests": 7494,
      "develop": 7495,
      "ordinary": 7496,
      "HOOKER": 7497,
      "cousin": 7498,
      "500": 7499,
      "Count": 7500,
      "Had": 7501,
      "Open": 7502,
      "Yah": 7503,
      "gers": 7504,
      "ov": 7505,
      "pian": 7506,
      "L339": 7507,
      "u1510": 7508,
      "L649": 7509,
      "Their": 7510,
      "iring": 7511,
      "Soon": 7512,
      "cheese": 7513,
      "nightmare": 7514,
      "torney": 7515,
      "answers": 7516,
      "u7580": 7517,
      "u7042": 7518,
      "sett": 7519,
      "reasons": 7520,
      "eleven": 7521,
      "Harold": 7522,
      "paint": 7523,
      "nearly": 7524,
      "CHRISTINE": 7525,
      "carrying": 7526,
      "nife": 7527,
      "storm": 7528,
      "Bullshit": 7529,
      "GWEN": 7530,
      "Hu": 7531,
      "Int": 7532,
      "ius": 7533,
      "m7": 7534,
      "mama": 7535,
      "nap": 7536,
      "rare": 7537,
      "incre": 7538,
      "u3656": 7539,
      "according": 7540,
      "u7932": 7541,
      "anta": 7542,
      "somehow": 7543,
      "HAGEN": 7544,
      "u2105": 7545,
      "IANO": 7546,
      "u6095": 7547,
      "BUFF": 7548,
      "hurts": 7549,
      "VICTORIA": 7550,
      "enemy": 7551,
      "spirit": 7552,
      "LUCIANO": 7553,
      "MARSHALL": 7554,
      "WOODY": 7555,
      "Far": 7556,
      "Tim": 7557,
      "WAR": 7558,
      "Wood": 7559,
      "mut": 7560,
      "L240": 7561,
      "u532": 7562,
      "usion": 7563,
      "cases": 7564,
      "RODERICK": 7565,
      "courage": 7566,
      "u3105": 7567,
      "u6572": 7568,
      "u1748": 7569,
      "u1248": 7570,
      "gging": 7571,
      "stress": 7572,
      "u6398": 7573,
      "Vegas": 7574,
      "GALLA": 7575,
      "Poor": 7576,
      "CROCKETT": 7577,
      "GREEN": 7578,
      "VANESSA": 7579,
      "THOS": 7580,
      "operation": 7581,
      "loyd": 7582,
      "fantastic": 7583,
      "cooper": 7584,
      "'...": 7585,
      "AGER": 7586,
      "Bad": 7587,
      "knife": 7588,
      "wide": 7589,
      "lled": 7590,
      "L377": 7591,
      "eds": 7592,
      "u3012": 7593,
      "ANO": 7594,
      "u2557": 7595,
      "itty": 7596,
      "MANAGER": 7597,
      "COTTER": 7598,
      "u4091": 7599,
      "u3829": 7600,
      "personally": 7601,
      "dealing": 7602,
      "u4997": 7603,
      "GABE": 7604,
      "STANLEY": 7605,
      "murdered": 7606,
      "screen": 7607,
      "IELD": 7608,
      "Scott": 7609,
      "EXLEY": 7610,
      "DRIVER": 7611,
      "ASH": 7612,
      "Cut": 7613,
      "DUS": 7614,
      "EK": 7615,
      "ELENA": 7616,
      "FIELD": 7617,
      "Hon": 7618,
      "Hall": 7619,
      "Lis": 7620,
      "Ry": 7621,
      "Sand": 7622,
      "fare": 7623,
      "ander": 7624,
      "L424": 7625,
      "L208": 7626,
      "u7683": 7627,
      "RASH": 7628,
      "comb": 7629,
      "REE": 7630,
      "ilty": 7631,
      "lookin": 7632,
      "FFER": 7633,
      "lower": 7634,
      "sooner": 7635,
      "chocolate": 7636,
      "curious": 7637,
      "cooking": 7638,
      "mentioned": 7639,
      "RASHID": 7640,
      "!\"": 7641,
      "Aye": 7642,
      "Pal": 7643,
      "Ton": 7644,
      "ville": 7645,
      "ware": 7646,
      "istr": 7647,
      "m56": 7648,
      "L331": 7649,
      "L452": 7650,
      "L191": 7651,
      "u4476": 7652,
      "L659": 7653,
      "u224": 7654,
      "motor": 7655,
      "diet": 7656,
      "monster": 7657,
      "Wouldn": 7658,
      "crit": 7659,
      "u1846": 7660,
      "Dead": 7661,
      "pardon": 7662,
      "Until": 7663,
      "Jew": 7664,
      "u7809": 7665,
      "magic": 7666,
      "distur": 7667,
      "occas": 7668,
      "TREVOR": 7669,
      "Hurry": 7670,
      "intellig": 7671,
      "complicated": 7672,
      "Death": 7673,
      "SW": 7674,
      "TELLY": 7675,
      "UCHO": 7676,
      "pir": 7677,
      "tag": 7678,
      "L567": 7679,
      "u1696": 7680,
      "u1642": 7681,
      "u7676": 7682,
      "u2980": 7683,
      "u2371": 7684,
      "neg": 7685,
      "likely": 7686,
      "carefully": 7687,
      "ITZ": 7688,
      "u7055": 7689,
      "THEW": 7690,
      "ladies": 7691,
      "attitude": 7692,
      "detective": 7693,
      "GREGOR": 7694,
      "Norman": 7695,
      "equip": 7696,
      "AUGGIE": 7697,
      "Adam": 7698,
      "Bre": 7699,
      "FUCK": 7700,
      "LANE": 7701,
      "OLA": 7702,
      "Spo": 7703,
      "Yo": 7704,
      "ano": 7705,
      "itary": 7706,
      "m176": 7707,
      "m567": 7708,
      "L170": 7709,
      "L212": 7710,
      "u1479": 7711,
      "u7384": 7712,
      "u473": 7713,
      "term": 7714,
      "aint": 7715,
      "pol": 7716,
      "JAC": 7717,
      "prices": 7718,
      "Whoa": 7719,
      "friendly": 7720,
      "u8545": 7721,
      "u5240": 7722,
      "u2621": 7723,
      "truly": 7724,
      "elev": 7725,
      "value": 7726,
      "forgotten": 7727,
      "FINNEGAN": 7728,
      "Know": 7729,
      "NIGHT": 7730,
      "Part": 7731,
      "UTA": 7732,
      "wound": 7733,
      "L321": 7734,
      "L226": 7735,
      "ROL": 7736,
      "affair": 7737,
      "downtown": 7738,
      "Chic": 7739,
      "cares": 7740,
      "u7180": 7741,
      "u7367": 7742,
      "NORA": 7743,
      "chase": 7744,
      "sweetheart": 7745,
      "terrific": 7746,
      "confess": 7747,
      "filled": 7748,
      "cigarettes": 7749,
      "JACQU": 7750,
      "DREW": 7751,
      "NU": 7752,
      "Tra": 7753,
      "Tai": 7754,
      "Wed": 7755,
      "yo": 7756,
      "regre": 7757,
      "hai": 7758,
      "u7349": 7759,
      "u7515": 7760,
      "myster": 7761,
      "decl": 7762,
      "indust": 7763,
      "tray": 7764,
      "RAT": 7765,
      "istic": 7766,
      "IDE": 7767,
      "grade": 7768,
      "plays": 7769,
      "u1133": 7770,
      "u4546": 7771,
      "DOD": 7772,
      "gged": 7773,
      "VALEN": 7774,
      "mile": 7775,
      "drove": 7776,
      "mbers": 7777,
      "Miles": 7778,
      "gentleman": 7779,
      "besides": 7780,
      "understood": 7781,
      "Baby": 7782,
      "GOOD": 7783,
      "LARD": 7784,
      "NIS": 7785,
      "Ow": 7786,
      "UPIN": 7787,
      "gage": 7788,
      "nig": 7789,
      "ram": 7790,
      "sac": 7791,
      "vote": 7792,
      "threw": 7793,
      "ancial": 7794,
      "itiz": 7795,
      "L222": 7796,
      "L277": 7797,
      "acle": 7798,
      "u1351": 7799,
      "u1614": 7800,
      "u8657": 7801,
      "ONEL": 7802,
      "poison": 7803,
      "However": 7804,
      "ilar": 7805,
      "AMES": 7806,
      "grown": 7807,
      "suits": 7808,
      "m600": 7809,
      "OKIE": 7810,
      "JEZZ": 7811,
      "TAUPIN": 7812,
      "CONSTAN": 7813,
      "BUCK": 7814,
      "ugly": 7815,
      "Phil": 7816,
      "JEZZIE": 7817,
      "Des": 7818,
      "Jones": 7819,
      "KLA": 7820,
      "bage": 7821,
      "cil": 7822,
      "ral": 7823,
      "u3443": 7824,
      "u3501": 7825,
      "u7372": 7826,
      "u7942": 7827,
      "u4315": 7828,
      "LEER": 7829,
      "ALBERT": 7830,
      "Thirty": 7831,
      "chest": 7832,
      "hibit": 7833,
      "France": 7834,
      "u6499": 7835,
      "RAYMOND": 7836,
      "brief": 7837,
      "customer": 7838,
      "seventy": 7839,
      "attractive": 7840,
      "Easy": 7841,
      "Home": 7842,
      "NARD": 7843,
      "Sue": 7844,
      "Seven": 7845,
      "SING": 7846,
      "Ty": 7847,
      "bare": 7848,
      "ials": 7849,
      "itz": 7850,
      "L342": 7851,
      "m307": 7852,
      "L409": 7853,
      "forms": 7854,
      "u3600": 7855,
      "u406": 7856,
      "u820": 7857,
      "u8375": 7858,
      "u5859": 7859,
      "LEIN": 7860,
      "agon": 7861,
      "asty": 7862,
      "ISAB": 7863,
      "prote": 7864,
      "disappear": 7865,
      "CAESAR": 7866,
      "izing": 7867,
      "u6434": 7868,
      "falling": 7869,
      "PINK": 7870,
      "wheel": 7871,
      "switch": 7872,
      "fella": 7873,
      "garage": 7874,
      "KURRING": 7875,
      "Russian": 7876,
      "GROUCHO": 7877,
      "indeed": 7878,
      "MCCLEOD": 7879,
      "Gover": 7880,
      "Ko": 7881,
      "Master": 7882,
      "Na": 7883,
      "Os": 7884,
      "Pri": 7885,
      "Res": 7886,
      "Sally": 7887,
      "ecut": 7888,
      "fla": 7889,
      "mass": 7890,
      "othy": 7891,
      "L599": 7892,
      "L549": 7893,
      "L510": 7894,
      "m414": 7895,
      "L165": 7896,
      "ida": 7897,
      "u1326": 7898,
      "u7111": 7899,
      "u4210": 7900,
      "L642": 7901,
      "u5971": 7902,
      "chose": 7903,
      "EDIE": 7904,
      "specially": 7905,
      "BERLY": 7906,
      "Also": 7907,
      "shame": 7908,
      "NORVILLE": 7909,
      "expert": 7910,
      "followed": 7911,
      "CORKY": 7912,
      "leads": 7913,
      "fortune": 7914,
      "bills": 7915,
      "KIMBERLY": 7916,
      "require": 7917,
      "Depart": 7918,
      "BRENNA": 7919,
      "arently": 7920,
      "GHER": 7921,
      "Im": 7922,
      "IER": 7923,
      "Lin": 7924,
      "Linda": 7925,
      "fro": 7926,
      "range": 7927,
      "itche": 7928,
      "L326": 7929,
      "L425": 7930,
      "u492": 7931,
      "u2470": 7932,
      "u2010": 7933,
      "LEA": 7934,
      "degree": 7935,
      "guilty": 7936,
      "MARA": 7937,
      "ruin": 7938,
      "CARE": 7939,
      "IGOR": 7940,
      "u8045": 7941,
      "points": 7942,
      "u4732": 7943,
      "DENNIS": 7944,
      "Buzz": 7945,
      "score": 7946,
      "GALLAGHER": 7947,
      "Chicago": 7948,
      "BIAN": 7949,
      "CARD": 7950,
      "Lloyd": 7951,
      "Run": 7952,
      "Swe": 7953,
      "skills": 7954,
      "theory": 7955,
      "asc": 7956,
      "L381": 7957,
      "m470": 7958,
      "L188": 7959,
      "u1804": 7960,
      "u8808": 7961,
      "u2484": 7962,
      "u2253": 7963,
      "roof": 7964,
      "ila": 7965,
      "ucky": 7966,
      "anged": 7967,
      "picking": 7968,
      "u4434": 7969,
      "u6770": 7970,
      "Annie": 7971,
      "insist": 7972,
      "u3390": 7973,
      "CRASH": 7974,
      "STANTZ": 7975,
      "ZZO": 7976,
      "Quite": 7977,
      "Danny": 7978,
      "brains": 7979,
      "desert": 7980,
      "British": 7981,
      "SMITH": 7982,
      "guarantee": 7983,
      "Relax": 7984,
      "application": 7985,
      "BIANCA": 7986,
      "PAM": 7987,
      "SP": 7988,
      "Wr": 7989,
      "inct": 7990,
      "ita": 7991,
      "escape": 7992,
      "u6615": 7993,
      "ORES": 7994,
      "trap": 7995,
      "nger": 7996,
      "IGAN": 7997,
      "LUTHOR": 7998,
      "Shhh": 7999,
      "sweat": 8000,
      "Army": 8001,
      "Perfect": 8002,
      "MCCALL": 8003,
      "director": 8004,
      "sandw": 8005,
      "DOLORES": 8006,
      "model": 8007,
      "STEPHEN": 8008,
      "SCHAE": 8009,
      ".,": 8010,
      "ACHER": 8011,
      "BELLE": 8012,
      "DS": 8013,
      "Haw": 8014,
      "Tex": 8015,
      "lun": 8016,
      "south": 8017,
      "havi": 8018,
      "L332": 8019,
      "L307": 8020,
      "m350": 8021,
      "west": 8022,
      "u7729": 8023,
      "u4208": 8024,
      "u4979": 8025,
      "u4719": 8026,
      "imum": 8027,
      "ENZO": 8028,
      "blew": 8029,
      "dishes": 8030,
      "showing": 8031,
      "u3738": 8032,
      "u7323": 8033,
      "Majesty": 8034,
      "u8923": 8035,
      "Pete": 8036,
      "WILLIAMSON": 8037,
      "entertain": 8038,
      "connection": 8039,
      "scription": 8040,
      "obviously": 8041,
      "assistant": 8042,
      "MAYOR": 8043,
      "session": 8044,
      "Sarah": 8045,
      "results": 8046,
      "transport": 8047,
      "Gimme": 8048,
      "Jud": 8049,
      "Mal": 8050,
      "Mel": 8051,
      "PONY": 8052,
      "Ra": 8053,
      "ZU": 8054,
      "aver": 8055,
      "phe": 8056,
      "sis": 8057,
      "tong": 8058,
      "wha": 8059,
      "rep": 8060,
      "u7938": 8061,
      "u4317": 8062,
      "chances": 8063,
      "gue": 8064,
      "umn": 8065,
      "COUL": 8066,
      "compli": 8067,
      "breaking": 8068,
      "wald": 8069,
      "u5820": 8070,
      "signal": 8071,
      "Both": 8072,
      "Leo": 8073,
      "Luke": 8074,
      "liter": 8075,
      "distance": 8076,
      "ANDREWS": 8077,
      "KORBEN": 8078,
      "including": 8079,
      "Ryan": 8080,
      "Department": 8081,
      "CIS": 8082,
      "East": 8083,
      "Gra": 8084,
      "II": 8085,
      "Te": 8086,
      "dare": 8087,
      "pup": 8088,
      "pills": 8089,
      "race": 8090,
      "iner": 8091,
      "ashed": 8092,
      "u3879": 8093,
      "u482": 8094,
      "L631": 8095,
      "u8687": 8096,
      "demand": 8097,
      "letting": 8098,
      "buried": 8099,
      "DEBBIE": 8100,
      "u7123": 8101,
      "ADDISON": 8102,
      "sence": 8103,
      "TOD": 8104,
      "anese": 8105,
      "Grant": 8106,
      "pattern": 8107,
      "north": 8108,
      "gym": 8109,
      "employ": 8110,
      "cabin": 8111,
      "OSBOR": 8112,
      "physical": 8113,
      "Dorothy": 8114,
      "promotion": 8115,
      "lliant": 8116,
      "TRUMAN": 8117,
      "UTAH": 8118,
      "Wednes": 8119,
      "OSBORNE": 8120,
      "Alice": 8121,
      "GLEN": 8122,
      "OUT": 8123,
      "bing": 8124,
      "gie": 8125,
      "jack": 8126,
      "kins": 8127,
      "pow": 8128,
      "resume": 8129,
      "L486": 8130,
      "L583": 8131,
      "L179": 8132,
      "L613": 8133,
      "u2271": 8134,
      "u2618": 8135,
      "ception": 8136,
      "temp": 8137,
      "ILA": 8138,
      "RAE": 8139,
      "whom": 8140,
      "LAM": 8141,
      "u7597": 8142,
      "u7576": 8143,
      "u5528": 8144,
      "CONNOR": 8145,
      "LITTLE": 8146,
      "u3644": 8147,
      "KARRAS": 8148,
      "u921": 8149,
      "Without": 8150,
      "Second": 8151,
      "cleaning": 8152,
      "u2997": 8153,
      "streets": 8154,
      "appeared": 8155,
      "Joey": 8156,
      "arrive": 8157,
      "GONZO": 8158,
      "SHEILA": 8159,
      "successful": 8160,
      "weapons": 8161,
      "documents": 8162,
      "DODGE": 8163,
      "Dun": 8164,
      "Jose": 8165,
      "Mars": 8166,
      "NED": 8167,
      "NAD": 8168,
      "awhile": 8169,
      "dust": 8170,
      "gang": 8171,
      "lap": 8172,
      "": 8173,
      "release": 8174,
      "andon": 8175,
      "L383": 8176,
      "alo": 8177,
      "u1243": 8178,
      "u7614": 8179,
      "u666": 8180,
      "u8103": 8181,
      "MATT": 8182,
      "bleed": 8183,
      "AMAN": 8184,
      "civi": 8185,
      "standard": 8186,
      "u5097": 8187,
      "u8587": 8188,
      "u7328": 8189,
      "Unless": 8190,
      "RENAUL": 8191,
      "ELIUS": 8192,
      "RENTON": 8193,
      "AUDREY": 8194,
      "SELINA": 8195,
      "Tonight": 8196,
      "equipment": 8197,
      "elevator": 8198,
      "NADIA": 8199,
      "RENAULT": 8200,
      "Au": 8201,
      "CED": 8202,
      "junk": 8203,
      "piz": 8204,
      "sin": 8205,
      "relig": 8206,
      "L299": 8207,
      "u3353": 8208,
      "nowhere": 8209,
      "u6257": 8210,
      "u8773": 8211,
      "shark": 8212,
      "improve": 8213,
      "loss": 8214,
      "ently": 8215,
      "ateful": 8216,
      "ROW": 8217,
      "dio": 8218,
      "Goodnight": 8219,
      "PAINE": 8220,
      "ization": 8221,
      "clever": 8222,
      "u4093": 8223,
      "u7220": 8224,
      "laws": 8225,
      "clearly": 8226,
      "JANET": 8227,
      "Madam": 8228,
      "education": 8229,
      "incredible": 8230,
      "Amy": 8231,
      "BLOOM": 8232,
      "GY": 8233,
      "Gir": 8234,
      "HOO": 8235,
      "L73": 8236,
      "L76": 8237,
      "ders": 8238,
      "data": 8239,
      "fli": 8240,
      "pred": 8241,
      "shad": 8242,
      "sey": 8243,
      "L404": 8244,
      "L646": 8245,
      "u8803": 8246,
      "u2918": 8247,
      "u5224": 8248,
      "agne": 8249,
      "agreed": 8250,
      "ILSA": 8251,
      "useful": 8252,
      "geant": 8253,
      "ESE": 8254,
      "mental": 8255,
      "assume": 8256,
      "suicide": 8257,
      "BETT": 8258,
      "inten": 8259,
      "u7533": 8260,
      "sitive": 8261,
      "u1077": 8262,
      "u7849": 8263,
      "corpor": 8264,
      "u7739": 8265,
      "craw": 8266,
      "u4991": 8267,
      "u2637": 8268,
      "sending": 8269,
      "DONNA": 8270,
      "KIP": 8271,
      "COLONEL": 8272,
      "tests": 8273,
      "BRIEN": 8274,
      "porter": 8275,
      "sugar": 8276,
      "statement": 8277,
      "basket": 8278,
      "pissed": 8279,
      "Hollywood": 8280,
      "JACQUES": 8281,
      "FLA": 8282,
      "MÁ": 8283,
      "NAT": 8284,
      "POL": 8285,
      "battle": 8286,
      "rem": 8287,
      "reput": 8288,
      "m277": 8289,
      "ooth": 8290,
      "u1712": 8291,
      "L607": 8292,
      "u6251": 8293,
      "u237": 8294,
      "u5984": 8295,
      "chief": 8296,
      "channe": 8297,
      "cean": 8298,
      "ALMÁ": 8299,
      "romise": 8300,
      "ICKS": 8301,
      "ATSO": 8302,
      "ULL": 8303,
      "pleased": 8304,
      "Ready": 8305,
      "believed": 8306,
      "u5046": 8307,
      "u3599": 8308,
      "lord": 8309,
      "u7663": 8310,
      "u5495": 8311,
      "COLWYN": 8312,
      "subway": 8313,
      "agreement": 8314,
      "CHEZ": 8315,
      "strike": 8316,
      "impression": 8317,
      "TENZIN": 8318,
      "SANCHEZ": 8319,
      "criminal": 8320,
      "original": 8321,
      "TUBBS": 8322,
      "SLOAN": 8323,
      "LAMBEAU": 8324,
      "GYATSO": 8325,
      "ALMÁSY": 8326,
      "Bus": 8327,
      "FOR": 8328,
      "Jess": 8329,
      "L88": 8330,
      "Larry": 8331,
      "punch": 8332,
      "wing": 8333,
      "toi": 8334,
      "iture": 8335,
      "stro": 8336,
      "m26": 8337,
      "L107": 8338,
      "u3204": 8339,
      "u3157": 8340,
      "u4704": 8341,
      "u6009": 8342,
      "u2675": 8343,
      "LEEN": 8344,
      "LELAND": 8345,
      "ALD": 8346,
      "exact": 8347,
      "downstairs": 8348,
      "intend": 8349,
      "MOOKIE": 8350,
      "u4096": 8351,
      "shock": 8352,
      "u4896": 8353,
      "u2036": 8354,
      "international": 8355,
      "u8428": 8356,
      "singing": 8357,
      "younger": 8358,
      "u8965": 8359,
      "Steve": 8360,
      "delicious": 8361,
      "Enter": 8362,
      "GARY": 8363,
      "LOOMIS": 8364,
      "increase": 8365,
      "KLAATU": 8366,
      "Wednesday": 8367,
      "FIR": 8368,
      "Jenny": 8369,
      "Kay": 8370,
      "PS": 8371,
      "ered": 8372,
      "sword": 8373,
      "lls": 8374,
      "behavi": 8375,
      "ably": 8376,
      "derer": 8377,
      "AMBER": 8378,
      "brown": 8379,
      "cient": 8380,
      "ems": 8381,
      "SHOR": 8382,
      "waited": 8383,
      "DOW": 8384,
      "financial": 8385,
      "conditions": 8386,
      "CONC": 8387,
      "azz": 8388,
      "glasses": 8389,
      "cigarette": 8390,
      "Wonder": 8391,
      "pregnant": 8392,
      "Spock": 8393,
      "NUKE": 8394,
      "CANDY": 8395,
      "Las": 8396,
      "dess": 8397,
      "sam": 8398,
      "slight": 8399,
      "wave": 8400,
      "L464": 8401,
      "L261": 8402,
      "u6109": 8403,
      "u2629": 8404,
      "u5611": 8405,
      "ador": 8406,
      "urgent": 8407,
      "butter": 8408,
      "romantic": 8409,
      "cale": 8410,
      "joint": 8411,
      "disappoint": 8412,
      "u2575": 8413,
      "u5144": 8414,
      "Shang": 8415,
      "moves": 8416,
      "VIOLA": 8417,
      "QUE": 8418,
      "u4647": 8419,
      "u8401": 8420,
      "MORGAN": 8421,
      "MARIETTE": 8422,
      "trees": 8423,
      "directly": 8424,
      "LINDSEY": 8425,
      "vegetables": 8426,
      "BLE": 8427,
      "cue": 8428,
      "dar": 8429,
      "iny": 8430,
      "ays": 8431,
      "u6378": 8432,
      "u8938": 8433,
      "u8259": 8434,
      "u269": 8435,
      "u2481": 8436,
      "u580": 8437,
      "u1163": 8438,
      "u2532": 8439,
      "u5099": 8440,
      "u6765": 8441,
      "brings": 8442,
      "signed": 8443,
      "solve": 8444,
      "Americans": 8445,
      "leader": 8446,
      "Benjam": 8447,
      "North": 8448,
      "psych": 8449,
      "booked": 8450,
      "busted": 8451,
      "direction": 8452,
      "satisfied": 8453,
      "PORTER": 8454,
      "NARCIS": 8455,
      "COULMIER": 8456,
      "NARCISSUS": 8457,
      "Fair": 8458,
      "GLOR": 8459,
      "Jon": 8460,
      "KNO": 8461,
      "Sing": 8462,
      "Tre": 8463,
      "Tony": 8464,
      "Wall": 8465,
      "eth": 8466,
      "path": 8467,
      "oul": 8468,
      "anch": 8469,
      "mere": 8470,
      "becoming": 8471,
      "L541": 8472,
      "liqu": 8473,
      "icking": 8474,
      "accom": 8475,
      "u1858": 8476,
      "u8186": 8477,
      "u288": 8478,
      "unusual": 8479,
      "urt": 8480,
      "woke": 8481,
      "COBB": 8482,
      "BEE": 8483,
      "homework": 8484,
      "u6165": 8485,
      "amed": 8486,
      "u4121": 8487,
      "u8462": 8488,
      "Roger": 8489,
      "Couldn": 8490,
      "services": 8491,
      "viol": 8492,
      "powerful": 8493,
      "SOPH": 8494,
      "JORDY": 8495,
      "ounce": 8496,
      "weapon": 8497,
      "slept": 8498,
      "CHASE": 8499,
      "Commander": 8500,
      "Gordon": 8501,
      "tongue": 8502,
      "GLORIA": 8503,
      "HARD": 8504,
      "OZ": 8505,
      "bie": 8506,
      "u980": 8507,
      "sele": 8508,
      "L537": 8509,
      "L238": 8510,
      "u1086": 8511,
      "u6953": 8512,
      "moder": 8513,
      "conference": 8514,
      "REESE": 8515,
      "stolen": 8516,
      "ANNON": 8517,
      "grateful": 8518,
      "ULLY": 8519,
      "RITA": 8520,
      "u2595": 8521,
      "DOOLI": 8522,
      "u3767": 8523,
      "u5051": 8524,
      "damned": 8525,
      "u2462": 8526,
      "u4325": 8527,
      "Rock": 8528,
      "u3345": 8529,
      "u8261": 8530,
      "Jean": 8531,
      "terribly": 8532,
      "salad": 8533,
      "HANA": 8534,
      "valu": 8535,
      "CALVIN": 8536,
      "laughing": 8537,
      "KURTZ": 8538,
      "clients": 8539,
      "Queen": 8540,
      "ASHLEY": 8541,
      "CONCANNON": 8542,
      "DOOLITTLE": 8543,
      "IRA": 8544,
      "Men": 8545,
      "ba": 8546,
      "museum": 8547,
      "pure": 8548,
      "tan": 8549,
      "retire": 8550,
      ".....": 8551,
      "vey": 8552,
      "u1883": 8553,
      "u5201": 8554,
      "unit": 8555,
      "rights": 8556,
      "commission": 8557,
      "helps": 8558,
      "talks": 8559,
      "Real": 8560,
      "u7072": 8561,
      "harder": 8562,
      "broad": 8563,
      "u5741": 8564,
      "confused": 8565,
      "changing": 8566,
      "concert": 8567,
      "PHILIP": 8568,
      "spoken": 8569,
      "SUPERIOR": 8570,
      "temperature": 8571,
      "LOVETT": 8572,
      "LV": 8573,
      "OT": 8574,
      "Squ": 8575,
      "analy": 8576,
      "bel": 8577,
      "offered": 8578,
      "formed": 8579,
      "u8475": 8580,
      "u8624": 8581,
      "u2209": 8582,
      "u2157": 8583,
      "ART": 8584,
      "notes": 8585,
      "cker": 8586,
      "saf": 8587,
      "STAT": 8588,
      "u1087": 8589,
      "condu": 8590,
      "Almost": 8591,
      "smile": 8592,
      "awake": 8593,
      "charges": 8594,
      "advance": 8595,
      "u6664": 8596,
      "boxes": 8597,
      "wallet": 8598,
      "itors": 8599,
      "document": 8600,
      "embarrass": 8601,
      "furniture": 8602,
      "CORNELIUS": 8603,
      "piano": 8604,
      "Benjamin": 8605,
      "?'": 8606,
      "ABA": 8607,
      "Down": 8608,
      "KRIN": 8609,
      "Med": 8610,
      "cable": 8611,
      "hill": 8612,
      "mous": 8613,
      "inch": 8614,
      "review": 8615,
      "tori": 8616,
      "L153": 8617,
      "u3311": 8618,
      "u515": 8619,
      "u5684": 8620,
      "ribut": 8621,
      "tear": 8622,
      "ICO": 8623,
      "ALABA": 8624,
      "planned": 8625,
      "crash": 8626,
      "scen": 8627,
      "SYLV": 8628,
      "u8631": 8629,
      "computers": 8630,
      "bullet": 8631,
      "SCOTTY": 8632,
      "president": 8633,
      "created": 8634,
      "SUPERMAN": 8635,
      "slip": 8636,
      "balance": 8637,
      "Morning": 8638,
      "Williams": 8639,
      "describe": 8640,
      "frightened": 8641,
      "material": 8642,
      "Honor": 8643,
      "regret": 8644,
      "ALABAMA": 8645,
      "FLO": 8646,
      "VON": 8647,
      "VIT": 8648,
      "pump": 8649,
      "stink": 8650,
      "m138": 8651,
      "m559": 8652,
      "L590": 8653,
      "u1413": 8654,
      "u8443": 8655,
      "cancer": 8656,
      "Helen": 8657,
      "ami": 8658,
      "ulate": 8659,
      "RAD": 8660,
      "KEAT": 8661,
      "livered": 8662,
      "reality": 8663,
      "u4162": 8664,
      "dude": 8665,
      "u6737": 8666,
      "warrant": 8667,
      "parties": 8668,
      "REYNOLD": 8669,
      "regard": 8670,
      "doctors": 8671,
      "bloody": 8672,
      "STANWY": 8673,
      "machines": 8674,
      "Mickey": 8675,
      "ENAS": 8676,
      "Japanese": 8677,
      "GRANDFATHER": 8678,
      "CARDENAS": 8679,
      "Joseph": 8680,
      "FIRST": 8681,
      "safety": 8682,
      "REYNOLDS": 8683,
      "STANWYK": 8684,
      "Fa": 8685,
      "Hit": 8686,
      "Hang": 8687,
      "Ly": 8688,
      "MID": 8689,
      "Nin": 8690,
      "jerk": 8691,
      "lu": 8692,
      "pple": 8693,
      "tun": 8694,
      "L319": 8695,
      "u7381": 8696,
      "u7206": 8697,
      "u421": 8698,
      "u4407": 8699,
      "L663": 8700,
      "u2876": 8701,
      "Theo": 8702,
      "shield": 8703,
      "som": 8704,
      "decent": 8705,
      "devil": 8706,
      "concentr": 8707,
      "otherwise": 8708,
      "cheaper": 8709,
      "thoughts": 8710,
      "disease": 8711,
      "CAIT": 8712,
      "u2521": 8713,
      "u8171": 8714,
      "lesson": 8715,
      "pretend": 8716,
      "u1420": 8717,
      "bargain": 8718,
      "DERGAST": 8719,
      "freed": 8720,
      "HELENA": 8721,
      "capable": 8722,
      "PENDERGAST": 8723,
      "fleet": 8724,
      "JONAH": 8725,
      "based": 8726,
      "occur": 8727,
      "destroyed": 8728,
      "title": 8729,
      "FLORENCE": 8730,
      "CAITLIN": 8731,
      ".]": 8732,
      "App": 8733,
      "Fort": 8734,
      "Might": 8735,
      "bound": 8736,
      "mask": 8737,
      "rab": 8738,
      "seats": 8739,
      "hated": 8740,
      "L322": 8741,
      "L436": 8742,
      "oop": 8743,
      "u1307": 8744,
      "u1306": 8745,
      "u1116": 8746,
      "u8879": 8747,
      "u2506": 8748,
      "tied": 8749,
      "STELLA": 8750,
      "CHEN": 8751,
      "commer": 8752,
      "prov": 8753,
      "overtime": 8754,
      "COLU": 8755,
      "u1594": 8756,
      "u5591": 8757,
      "PATTER": 8758,
      "Alan": 8759,
      "shake": 8760,
      "formal": 8761,
      "MONT": 8762,
      "TEDDY": 8763,
      "deter": 8764,
      "murderer": 8765,
      "Guy": 8766,
      "WILLIAMS": 8767,
      "families": 8768,
      "Sidney": 8769,
      "Robin": 8770,
      "breathe": 8771,
      "reputation": 8772,
      "PATTERSON": 8773,
      "Apri": 8774,
      "BIR": 8775,
      "BRILL": 8776,
      "Dar": 8777,
      "LILLY": 8778,
      "SAT": 8779,
      "Santa": 8780,
      "lake": 8781,
      "u956": 8782,
      "zed": 8783,
      "L512": 8784,
      "iding": 8785,
      "ican": 8786,
      "u1210": 8787,
      "L604": 8788,
      "u6817": 8789,
      "u8285": 8790,
      "aging": 8791,
      "agues": 8792,
      "iest": 8793,
      "laund": 8794,
      "maid": 8795,
      "courses": 8796,
      "heading": 8797,
      "u1172": 8798,
      "ITRE": 8799,
      "menu": 8800,
      "u3520": 8801,
      "u6593": 8802,
      "Anybody": 8803,
      "Ange": 8804,
      "u5821": 8805,
      "toward": 8806,
      "grew": 8807,
      "thousands": 8808,
      "Step": 8809,
      "burning": 8810,
      "Sergeant": 8811,
      "Offic": 8812,
      "Half": 8813,
      "CHARLES": 8814,
      "Lisa": 8815,
      "April": 8816,
      "Die": 8817,
      "Low": 8818,
      "L89": 8819,
      "Ot": 8820,
      "OUGH": 8821,
      "Person": 8822,
      "PREY": 8823,
      "Rachel": 8824,
      "Such": 8825,
      "Span": 8826,
      "Wang": 8827,
      "WIT": 8828,
      "fried": 8829,
      "spre": 8830,
      "ites": 8831,
      "ows": 8832,
      "icient": 8833,
      "u3979": 8834,
      "u3117": 8835,
      "u3058": 8836,
      "u6777": 8837,
      "u6112": 8838,
      "u6583": 8839,
      "u5678": 8840,
      "ICIA": 8841,
      "execut": 8842,
      "MACE": 8843,
      "items": 8844,
      "hip": 8845,
      "Beat": 8846,
      "CASS": 8847,
      "headed": 8848,
      "u1195": 8849,
      "u1188": 8850,
      "badly": 8851,
      "houses": 8852,
      "u6548": 8853,
      "STEVEN": 8854,
      "Neither": 8855,
      "u2768": 8856,
      "u5840": 8857,
      "spending": 8858,
      "DICKIE": 8859,
      "MBUS": 8860,
      "Clark": 8861,
      "garbage": 8862,
      "prints": 8863,
      "EMMCHEN": 8864,
      "JOSEPHINE": 8865,
      "FLAEMMCHEN": 8866,
      "toilet": 8867,
      "KNOX": 8868,
      "COLUMBUS": 8869,
      "PREYSING": 8870,
      "CCO": 8871,
      "Cont": 8872,
      "Mu": 8873,
      "Money": 8874,
      "Mitche": 8875,
      "nam": 8876,
      "thou": 8877,
      "stal": 8878,
      "alarm": 8879,
      "L196": 8880,
      "L223": 8881,
      "lips": 8882,
      "u3642": 8883,
      "aces": 8884,
      "u502": 8885,
      "Web": 8886,
      "deb": 8887,
      "demon": 8888,
      "delivered": 8889,
      "arts": 8890,
      "ulti": 8891,
      "owns": 8892,
      "ISE": 8893,
      "GELEIN": 8894,
      "SECRE": 8895,
      "finds": 8896,
      "BEA": 8897,
      "headache": 8898,
      "u1191": 8899,
      "u2596": 8900,
      "realized": 8901,
      "JOHNS": 8902,
      "JOHNSON": 8903,
      "anced": 8904,
      "Mean": 8905,
      "PARRY": 8906,
      "u8697": 8907,
      "Baron": 8908,
      "jewel": 8909,
      "Elaine": 8910,
      "burned": 8911,
      "sucker": 8912,
      "management": 8913,
      "rupt": 8914,
      "electric": 8915,
      "circum": 8916,
      "PRIEST": 8917,
      "istration": 8918,
      "KRINGELEIN": 8919,
      "Ang": 8920,
      "Ham": 8921,
      "Hild": 8922,
      "KON": 8923,
      "Naw": 8924,
      "Vi": 8925,
      "m85": 8926,
      "nar": 8927,
      "nasty": 8928,
      "attorney": 8929,
      "veh": 8930,
      "m483": 8931,
      "alco": 8932,
      "L225": 8933,
      "L213": 8934,
      "u2205": 8935,
      "u2786": 8936,
      "u571": 8937,
      "u553": 8938,
      "u5976": 8939,
      "u5313": 8940,
      "ading": 8941,
      "ALFRED": 8942,
      "MAD": 8943,
      "helpful": 8944,
      "achie": 8945,
      "SHU": 8946,
      "tennis": 8947,
      "nerve": 8948,
      "creep": 8949,
      "u3545": 8950,
      "Excellent": 8951,
      "walks": 8952,
      "confirm": 8953,
      "riding": 8954,
      "films": 8955,
      "loyal": 8956,
      "approach": 8957,
      "script": 8958,
      "publ": 8959,
      "graduate": 8960,
      "Course": 8961,
      "CLIFF": 8962,
      "SANDRO": 8963,
      "Mitchell": 8964,
      "Afr": 8965,
      "Especially": 8966,
      "HEL": 8967,
      "L74": 8968,
      "Play": 8969,
      "SZ": 8970,
      "TRIP": 8971,
      "Year": 8972,
      "bone": 8973,
      "fancy": 8974,
      "vable": 8975,
      "thir": 8976,
      "sty": 8977,
      "L398": 8978,
      "L192": 8979,
      "ette": 8980,
      "u3980": 8981,
      "u664": 8982,
      "ARI": 8983,
      "union": 8984,
      "ELER": 8985,
      "butt": 8986,
      "THAT": 8987,
      "poll": 8988,
      "plastic": 8989,
      "exp": 8990,
      "fax": 8991,
      "DAWN": 8992,
      "Been": 8993,
      "sidered": 8994,
      "u2144": 8995,
      "create": 8996,
      "u8598": 8997,
      "ADER": 8998,
      "strict": 8999,
      "confidence": 9000,
      "eighteen": 9001,
      "PREACHER": 9002,
      "Lucy": 9003,
      "CLAYTON": 9004,
      "CHEKOV": 9005,
      "quarters": 9006,
      "brilliant": 9007,
      "WESLEY": 9008,
      "arrested": 9009,
      "admire": 9010,
      "Internet": 9011,
      "JEREMY": 9012,
      "EVERETT": 9013,
      "Karl": 9014,
      "extremely": 9015,
      "settled": 9016,
      "LEAF": 9017,
      "Bal": 9018,
      "Either": 9019,
      "Him": 9020,
      "Junior": 9021,
      "citiz": 9022,
      "rink": 9023,
      "ssed": 9024,
      "wan": 9025,
      "zer": 9026,
      "stage": 9027,
      "armed": 9028,
      "ena": 9029,
      "dom": 9030,
      "u1758": 9031,
      "u4785": 9032,
      "u4112": 9033,
      "ARTE": 9034,
      "irts": 9035,
      "someplace": 9036,
      "INDLER": 9037,
      "considered": 9038,
      "proced": 9039,
      "icks": 9040,
      "surely": 9041,
      "RIAN": 9042,
      "PAZZI": 9043,
      "u3766": 9044,
      "BABY": 9045,
      "funeral": 9046,
      "ADRIAN": 9047,
      "u7460": 9048,
      "u4737": 9049,
      "SCHINDLER": 9050,
      "passion": 9051,
      "CORBETT": 9052,
      "respond": 9053,
      "DARRELL": 9054,
      "jury": 9055,
      "Victor": 9056,
      "tapes": 9057,
      "PAMELA": 9058,
      "behavior": 9059,
      "Bon": 9060,
      "Cam": 9061,
      "Eh": 9062,
      "Fre": 9063,
      "FARL": 9064,
      "Glad": 9065,
      "Night": 9066,
      "While": 9067,
      "ZON": 9068,
      "hun": 9069,
      "rag": 9070,
      "rise": 9071,
      "ÓN": 9072,
      "reward": 9073,
      "measure": 9074,
      "hest": 9075,
      "arily": 9076,
      "asha": 9077,
      "u3182": 9078,
      "u3518": 9079,
      "u7619": 9080,
      "u7786": 9081,
      "u6706": 9082,
      "u895": 9083,
      "u5216": 9084,
      "rie": 9085,
      "poet": 9086,
      "plate": 9087,
      "sail": 9088,
      "background": 9089,
      "wore": 9090,
      "everyday": 9091,
      "stops": 9092,
      "SEFTON": 9093,
      "MIR": 9094,
      "u3525": 9095,
      "u7399": 9096,
      "u2894": 9097,
      "u1468": 9098,
      "frank": 9099,
      "u3648": 9100,
      "ALLISON": 9101,
      "MACFARL": 9102,
      "midnight": 9103,
      "JUNIOR": 9104,
      "slowly": 9105,
      "According": 9106,
      "RAMÓN": 9107,
      "SKYLAR": 9108,
      "target": 9109,
      "MACFARLANE": 9110,
      ".?": 9111,
      "BELA": 9112,
      "Cub": 9113,
      "Fer": 9114,
      "Honest": 9115,
      "KKO": 9116,
      "Kelly": 9117,
      "Sn": 9118,
      "toast": 9119,
      "ller": 9120,
      "bered": 9121,
      "L171": 9122,
      "u3934": 9123,
      "u6659": 9124,
      "u2289": 9125,
      "u2746": 9126,
      "u5616": 9127,
      "fever": 9128,
      "LETT": 9129,
      "bug": 9130,
      "angle": 9131,
      "athy": 9132,
      "certific": 9133,
      "u6829": 9134,
      "u1755": 9135,
      "VINCE": 9136,
      "u2320": 9137,
      "u3468": 9138,
      "warning": 9139,
      "charming": 9140,
      "u4790": 9141,
      "eighty": 9142,
      "June": 9143,
      "venture": 9144,
      "burg": 9145,
      "RONNY": 9146,
      "WEIR": 9147,
      "TREE": 9148,
      "fingers": 9149,
      "scient": 9150,
      "SKIPPER": 9151,
      "journey": 9152,
      "mixed": 9153,
      "SWANA": 9154,
      "advantage": 9155,
      "Again": 9156,
      "HY": 9157,
      "KRIST": 9158,
      "Ven": 9159,
      "ZLO": 9160,
      "fab": 9161,
      "ns": 9162,
      "thri": 9163,
      "recall": 9164,
      "ancient": 9165,
      "u4934": 9166,
      "u665": 9167,
      "u6259": 9168,
      "u6379": 9169,
      "u888": 9170,
      "u8355": 9171,
      "u585": 9172,
      "u5986": 9173,
      "cancel": 9174,
      "artist": 9175,
      "exhibit": 9176,
      "Thought": 9177,
      "ummy": 9178,
      "KEOUGH": 9179,
      "Gold": 9180,
      "Best": 9181,
      "IRIS": 9182,
      "handsome": 9183,
      "Stu": 9184,
      "u8034": 9185,
      "function": 9186,
      "SAMI": 9187,
      "u4667": 9188,
      "BURG": 9189,
      "fishing": 9190,
      "baseball": 9191,
      "flower": 9192,
      "LASZLO": 9193,
      "PILMAN": 9194,
      "FREDO": 9195,
      "SULU": 9196,
      "MATTHEW": 9197,
      "ISABELLA": 9198,
      "Spanish": 9199,
      "SZPILMAN": 9200,
      "IUS": 9201,
      "Made": 9202,
      "Tor": 9203,
      "buck": 9204,
      "cong": 9205,
      "fake": 9206,
      "iers": 9207,
      "tank": 9208,
      "vard": 9209,
      "medi": 9210,
      "stant": 9211,
      "sequ": 9212,
      "hates": 9213,
      "assed": 9214,
      "u3216": 9215,
      "u7057": 9216,
      "u8937": 9217,
      "u2692": 9218,
      "END": 9219,
      "thered": 9220,
      "trunk": 9221,
      "CHANG": 9222,
      "focus": 9223,
      "IDER": 9224,
      "u6134": 9225,
      "HECTOR": 9226,
      "sets": 9227,
      "desper": 9228,
      "Anne": 9229,
      "u7440": 9230,
      "stret": 9231,
      "prior": 9232,
      "u7637": 9233,
      "solid": 9234,
      "Cole": 9235,
      "KARLA": 9236,
      "TRACY": 9237,
      "related": 9238,
      "Prin": 9239,
      "traveling": 9240,
      "colors": 9241,
      "WILLOW": 9242,
      "occup": 9243,
      "loaded": 9244,
      "society": 9245,
      "champagne": 9246,
      "victim": 9247,
      "specific": 9248,
      "pilot": 9249,
      "audience": 9250,
      "pizza": 9251,
      "freedom": 9252,
      "Pull": 9253,
      "Sc": 9254,
      "fy": 9255,
      "ining": 9256,
      "replace": 9257,
      "keting": 9258,
      "L318": 9259,
      "iction": 9260,
      "u3154": 9261,
      "u6742": 9262,
      "u8916": 9263,
      "LESTAT": 9264,
      "decor": 9265,
      "ives": 9266,
      "convin": 9267,
      "progress": 9268,
      "events": 9269,
      "LOTTE": 9270,
      "tryin": 9271,
      "SHIN": 9272,
      "mond": 9273,
      "ops": 9274,
      "marks": 9275,
      "u4540": 9276,
      "u4548": 9277,
      "u6127": 9278,
      "Start": 9279,
      "u4029": 9280,
      "u8198": 9281,
      "PERRY": 9282,
      "u1894": 9283,
      "u2394": 9284,
      "u6420": 9285,
      "MEG": 9286,
      "u6012": 9287,
      "JESSIE": 9288,
      "suspic": 9289,
      "photograph": 9290,
      "ivid": 9291,
      "SAUNDRA": 9292,
      "possibility": 9293,
      "humor": 9294,
      "SCULLY": 9295,
      "DUNBAR": 9296,
      "HUNTER": 9297,
      "brave": 9298,
      "Cons": 9299,
      "Lam": 9300,
      "Mus": 9301,
      "Vir": 9302,
      "Wo": 9303,
      "flies": 9304,
      "guts": 9305,
      "influ": 9306,
      "icles": 9307,
      "u2256": 9308,
      "imate": 9309,
      "ifts": 9310,
      "indic": 9311,
      "guide": 9312,
      "ruined": 9313,
      "disappeared": 9314,
      "u3725": 9315,
      "venue": 9316,
      "u8170": 9317,
      "checks": 9318,
      "GRAY": 9319,
      "u2851": 9320,
      "gger": 9321,
      "lands": 9322,
      "highly": 9323,
      "facts": 9324,
      "conscious": 9325,
      "pulling": 9326,
      "STONE": 9327,
      "practically": 9328,
      "growing": 9329,
      "Earl": 9330,
      "military": 9331,
      "Janet": 9332,
      "AMANDA": 9333,
      "laundry": 9334,
      "circumst": 9335,
      "CTER": 9336,
      "Dou": 9337,
      "FUR": 9338,
      "Funny": 9339,
      "ISTER": 9340,
      "Jam": 9341,
      "National": 9342,
      "Ron": 9343,
      "SPEN": 9344,
      "TROY": 9345,
      "Vin": 9346,
      "alent": 9347,
      "ole": 9348,
      "pound": 9349,
      "swell": 9350,
      "stood": 9351,
      "rend": 9352,
      "theater": 9353,
      "L449": 9354,
      "L273": 9355,
      "u740": 9356,
      "ANYA": 9357,
      "ICHE": 9358,
      "bored": 9359,
      "trail": 9360,
      "constru": 9361,
      "IDIANA": 9362,
      "omb": 9363,
      "u7878": 9364,
      "u3532": 9365,
      "u8797": 9366,
      "u8768": 9367,
      "u3225": 9368,
      "MAXINE": 9369,
      "sym": 9370,
      "symp": 9371,
      "u1663": 9372,
      "logist": 9373,
      "Los": 9374,
      "millions": 9375,
      "Seems": 9376,
      "ANNABELLE": 9377,
      "cleaned": 9378,
      "MACREA": 9379,
      "u6019": 9380,
      "Gotta": 9381,
      "u5923": 9382,
      "Pardon": 9383,
      "RIDGE": 9384,
      "Super": 9385,
      "route": 9386,
      "investigation": 9387,
      "VIRIDIANA": 9388,
      "repeat": 9389,
      "CASPER": 9390,
      "MACREADY": 9391,
      "CER": 9392,
      "Dear": 9393,
      "Gar": 9394,
      "Hong": 9395,
      "HELL": 9396,
      "Kane": 9397,
      "KONG": 9398,
      "Oly": 9399,
      "Pan": 9400,
      "Work": 9401,
      "dirt": 9402,
      "eed": 9403,
      "gall": 9404,
      "ocean": 9405,
      "members": 9406,
      "enced": 9407,
      "edge": 9408,
      "L468": 9409,
      "L539": 9410,
      "L573": 9411,
      "L210": 9412,
      "u7926": 9413,
      "u7017": 9414,
      "u8211": 9415,
      "u247": 9416,
      "u2350": 9417,
      "terror": 9418,
      "loser": 9419,
      "acks": 9420,
      "yellow": 9421,
      "MARQU": 9422,
      "assure": 9423,
      "CARMEN": 9424,
      "mates": 9425,
      "corn": 9426,
      "u8762": 9427,
      "motherfucker": 9428,
      "sweater": 9429,
      "Move": 9430,
      "signs": 9431,
      "u6393": 9432,
      "shots": 9433,
      "touched": 9434,
      "Police": 9435,
      "personality": 9436,
      "Claren": 9437,
      "official": 9438,
      "include": 9439,
      "defense": 9440,
      "scary": 9441,
      "crowd": 9442,
      "HUEY": 9443,
      "princi": 9444,
      "CARLOS": 9445,
      "sneak": 9446,
      "occasion": 9447,
      "industry": 9448,
      "CONSTANZE": 9449,
      "Hildy": 9450,
      "MARQUIS": 9451,
      "Bra": 9452,
      "Cu": 9453,
      "Cli": 9454,
      "Cur": 9455,
      "Dri": 9456,
      "Kir": 9457,
      "Lady": 9458,
      "Sur": 9459,
      "SCARE": 9460,
      "Wade": 9461,
      "gust": 9462,
      "pit": 9463,
      "rist": 9464,
      "attract": 9465,
      "below": 9466,
      "otic": 9467,
      "m580": 9468,
      "L351": 9469,
      "m478": 9470,
      "forced": 9471,
      "u1639": 9472,
      "u2389": 9473,
      "u5054": 9474,
      "ARINE": 9475,
      "rol": 9476,
      "delay": 9477,
      "ents": 9478,
      "contain": 9479,
      "ROME": 9480,
      "MANTAN": 9481,
      "bury": 9482,
      "DADE": 9483,
      "RIZZO": 9484,
      "u2544": 9485,
      "PADEN": 9486,
      "u8131": 9487,
      "BACK": 9488,
      "u4821": 9489,
      "RUTH": 9490,
      "u2762": 9491,
      "visiting": 9492,
      "JEROME": 9493,
      "craft": 9494,
      "charged": 9495,
      "sixteen": 9496,
      "u5691": 9497,
      "solution": 9498,
      "EVIL": 9499,
      "IOUS": 9500,
      "u5015": 9501,
      "passe": 9502,
      "KATHARINE": 9503,
      "nesses": 9504,
      "Sonny": 9505,
      "compliment": 9506,
      "Enterprise": 9507,
      "Officer": 9508,
      "SCARECROW": 9509,
      "ROMEO": 9510,
      "FAR": 9511,
      "FIE": 9512,
      "Fire": 9513,
      "Jer": 9514,
      "Kid": 9515,
      "Kong": 9516,
      "Karen": 9517,
      "Kev": 9518,
      "Mat": 9519,
      "OSE": 9520,
      "Send": 9521,
      "ais": 9522,
      "fus": 9523,
      "las": 9524,
      "yers": 9525,
      "stab": 9526,
      "L199": 9527,
      "u1308": 9528,
      "u1313": 9529,
      "u6626": 9530,
      "u8666": 9531,
      "u276": 9532,
      "u5489": 9533,
      "tial": 9534,
      "ante": 9535,
      "shine": 9536,
      "image": 9537,
      "Head": 9538,
      "article": 9539,
      "RAILLY": 9540,
      "cience": 9541,
      "angers": 9542,
      "u3034": 9543,
      "u3122": 9544,
      "u6163": 9545,
      "NYAH": 9546,
      "Stand": 9547,
      "u3572": 9548,
      "shoe": 9549,
      "interests": 9550,
      "u2360": 9551,
      "mistakes": 9552,
      "BUTT": 9553,
      "u2299": 9554,
      "u3961": 9555,
      "community": 9556,
      "walls": 9557,
      "basic": 9558,
      "MCCLANE": 9559,
      "robber": 9560,
      "Ellie": 9561,
      "grave": 9562,
      "CUST": 9563,
      "Kenned": 9564,
      "breathing": 9565,
      "CAMER": 9566,
      "Otherwise": 9567,
      "TARY": 9568,
      "Detective": 9569,
      "steak": 9570,
      "SECRETARY": 9571,
      "SHINZON": 9572,
      "Clarence": 9573,
      "Bel": 9574,
      "Flor": 9575,
      "GIDE": 9576,
      "MCK": 9577,
      "Nine": 9578,
      "YU": 9579,
      "mpic": 9580,
      "tol": 9581,
      "lla": 9582,
      "heh": 9583,
      "L379": 9584,
      "L574": 9585,
      "L276": 9586,
      "u3973": 9587,
      "u1679": 9588,
      "u7702": 9589,
      "u6704": 9590,
      "amps": 9591,
      "ENANT": 9592,
      "apple": 9593,
      "prob": 9594,
      "EDDY": 9595,
      "ELLI": 9596,
      "Church": 9597,
      "u1530": 9598,
      "PAS": 9599,
      "u7824": 9600,
      "u4032": 9601,
      "object": 9602,
      "desire": 9603,
      "hundreds": 9604,
      "u9019": 9605,
      "atherine": 9606,
      "GOD": 9607,
      "ators": 9608,
      "similar": 9609,
      "HERO": 9610,
      "appears": 9611,
      "UTENANT": 9612,
      "Caes": 9613,
      "RONNIE": 9614,
      "photos": 9615,
      "Times": 9616,
      "techno": 9617,
      "divorced": 9618,
      "bike": 9619,
      "various": 9620,
      "HORSE": 9621,
      "LIEUTENANT": 9622,
      "traditional": 9623,
      "NELS": 9624,
      "Oswald": 9625,
      "GIDEON": 9626,
      "Bas": 9627,
      "BTREE": 9628,
      "Centr": 9629,
      "Hill": 9630,
      "Ir": 9631,
      "RHE": 9632,
      "Use": 9633,
      "cats": 9634,
      "nation": 9635,
      "nical": 9636,
      "tend": 9637,
      "u935": 9638,
      "zo": 9639,
      "zero": 9640,
      "init": 9641,
      "theat": 9642,
      "metal": 9643,
      "aries": 9644,
      "ben": 9645,
      "u6480": 9646,
      "u2657": 9647,
      "u567": 9648,
      "u5933": 9649,
      "withdraw": 9650,
      "shy": 9651,
      "amond": 9652,
      "LEO": 9653,
      "thinkin": 9654,
      "ureau": 9655,
      "ALAN": 9656,
      "owned": 9657,
      "ROCCO": 9658,
      "whore": 9659,
      "LASS": 9660,
      "LOK": 9661,
      "sphere": 9662,
      "KEE": 9663,
      "diamond": 9664,
      "u3073": 9665,
      "u2564": 9666,
      "ITOR": 9667,
      "aunt": 9668,
      "u2848": 9669,
      "u3495": 9670,
      "century": 9671,
      "appet": 9672,
      "Boston": 9673,
      "u3998": 9674,
      "horses": 9675,
      "CRABTREE": 9676,
      "GIB": 9677,
      "whenever": 9678,
      "packing": 9679,
      "placed": 9680,
      "True": 9681,
      "political": 9682,
      "routine": 9683,
      "mountains": 9684,
      "pussy": 9685,
      "Brian": 9686,
      "KULOK": 9687,
      "WORF": 9688,
      "barely": 9689,
      "HOOPER": 9690,
      "HEROINE": 9691,
      "Caesar": 9692,
      "RHEYA": 9693,
      "Book": 9694,
      "Darling": 9695,
      "GINA": 9696,
      "POO": 9697,
      "Ram": 9698,
      "Terry": 9699,
      "oon": 9700,
      "pill": 9701,
      "rings": 9702,
      "meth": 9703,
      "sters": 9704,
      "belt": 9705,
      "associ": 9706,
      "L353": 9707,
      "u765": 9708,
      "u447": 9709,
      "u452": 9710,
      "u832": 9711,
      "u8675": 9712,
      "u8959": 9713,
      "u8985": 9714,
      "golf": 9715,
      "justice": 9716,
      "tellin": 9717,
      "ESCO": 9718,
      "ousy": 9719,
      "stores": 9720,
      "RANDY": 9721,
      "stands": 9722,
      "estab": 9723,
      "rude": 9724,
      "u7177": 9725,
      "L2440": 9726,
      "u2045": 9727,
      "smooth": 9728,
      "apping": 9729,
      "passing": 9730,
      "MORPH": 9731,
      "swing": 9732,
      "WHAT": 9733,
      "arranged": 9734,
      "washing": 9735,
      "Plus": 9736,
      "chiat": 9737,
      "PILAR": 9738,
      "hunting": 9739,
      "Calm": 9740,
      "Texas": 9741,
      "rabbit": 9742,
      "BEAVIS": 9743,
      "Olympic": 9744,
      "Kennedy": 9745,
      "ATHOS": 9746,
      "ITER": 9747,
      "MUS": 9748,
      "OVER": 9749,
      "Rep": 9750,
      "erest": 9751,
      "naked": 9752,
      "ox": 9753,
      "ini": 9754,
      "L152": 9755,
      "L243": 9756,
      "u498": 9757,
      "u4658": 9758,
      "u4222": 9759,
      "u613": 9760,
      "u6455": 9761,
      "u8455": 9762,
      "u8914": 9763,
      "u5958": 9764,
      "u5302": 9765,
      "therap": 9766,
      "ural": 9767,
      "individ": 9768,
      "THX": 9769,
      "concl": 9770,
      "bled": 9771,
      "prepar": 9772,
      "prescription": 9773,
      "affect": 9774,
      "DEBOR": 9775,
      "wrap": 9776,
      "mony": 9777,
      "Reed": 9778,
      "u7831": 9779,
      "HEY": 9780,
      "u8046": 9781,
      "u1788": 9782,
      "Anyone": 9783,
      "awn": 9784,
      "u7761": 9785,
      "shipment": 9786,
      "u6435": 9787,
      "pathetic": 9788,
      "mploy": 9789,
      "leading": 9790,
      "draft": 9791,
      "twist": 9792,
      "engaged": 9793,
      "windows": 9794,
      "LILI": 9795,
      "actions": 9796,
      "mirror": 9797,
      "RAMBO": 9798,
      "Beaut": 9799,
      "benefits": 9800,
      "automat": 9801,
      "frame": 9802,
      "sharp": 9803,
      "Francisco": 9804,
      "dessert": 9805,
      "Shanghai": 9806,
      "SYLVIA": 9807,
      "CUSTOMER": 9808,
      "DEBORAH": 9809,
      "EUS": 9810,
      "KAN": 9811,
      "Later": 9812,
[...]
